{
  "version": "1.0",
  "truncation": null,
  "padding": null,
  "added_tokens": [
    {
      "id": 0,
      "content": "<|endoftext|>",
      "single_word": false,
      "lstrip": false,
      "rstrip": false,
      "normalized": false,
      "special": true
    }
  ],
  "normalizer": null,
  "pre_tokenizer": {
    "type": "ByteLevel",
    "add_prefix_space": false,
    "trim_offsets": true,
    "use_regex": true
  },
  "post_processor": null,
  "decoder": {
    "type": "ByteLevel",
    "add_prefix_space": true,
    "trim_offsets": true,
    "use_regex": true
  },
  "model": {
    "type": "BPE",
    "dropout": null,
    "unk_token": null,
    "continuing_subword_prefix": null,
    "end_of_word_suffix": null,
    "fuse_unk": false,
    "byte_fallback": false,
    "ignore_merges": false,
    "vocab": {
      "<|endoftext|>": 0,
      "!": 1,
      "\"": 2,
      "#": 3,
      "$": 4,
      "%": 5,
      "&": 6,
      "'": 7,
      "(": 8,
      ")": 9,
      "*": 10,
      "+": 11,
      ",": 12,
      "-": 13,
      ".": 14,
      "/": 15,
      "0": 16,
      "1": 17,
      "2": 18,
      "3": 19,
      "4": 20,
      "5": 21,
      "6": 22,
      "7": 23,
      "8": 24,
      "9": 25,
      ":": 26,
      ";": 27,
      "=": 28,
      "?": 29,
      "A": 30,
      "B": 31,
      "C": 32,
      "D": 33,
      "E": 34,
      "F": 35,
      "G": 36,
      "H": 37,
      "I": 38,
      "J": 39,
      "K": 40,
      "L": 41,
      "M": 42,
      "N": 43,
      "O": 44,
      "P": 45,
      "Q": 46,
      "R": 47,
      "S": 48,
      "T": 49,
      "U": 50,
      "V": 51,
      "W": 52,
      "X": 53,
      "Y": 54,
      "Z": 55,
      "[": 56,
      "\\": 57,
      "]": 58,
      "^": 59,
      "_": 60,
      "`": 61,
      "a": 62,
      "b": 63,
      "c": 64,
      "d": 65,
      "e": 66,
      "f": 67,
      "g": 68,
      "h": 69,
      "i": 70,
      "j": 71,
      "k": 72,
      "l": 73,
      "m": 74,
      "n": 75,
      "o": 76,
      "p": 77,
      "q": 78,
      "r": 79,
      "s": 80,
      "t": 81,
      "u": 82,
      "v": 83,
      "w": 84,
      "x": 85,
      "y": 86,
      "z": 87,
      "{": 88,
      "|": 89,
      "}": 90,
      "~": 91,
      "¡": 92,
      "¢": 93,
      "£": 94,
      "¤": 95,
      "¥": 96,
      "¦": 97,
      "§": 98,
      "¨": 99,
      "©": 100,
      "ª": 101,
      "«": 102,
      "¬": 103,
      "®": 104,
      "¯": 105,
      "°": 106,
      "±": 107,
      "²": 108,
      "³": 109,
      "´": 110,
      "µ": 111,
      "¶": 112,
      "·": 113,
      "¸": 114,
      "¹": 115,
      "º": 116,
      "»": 117,
      "¼": 118,
      "½": 119,
      "¾": 120,
      "¿": 121,
      "Â": 122,
      "Ã": 123,
      "Ä": 124,
      "Å": 125,
      "Æ": 126,
      "Ç": 127,
      "È": 128,
      "É": 129,
      "Ê": 130,
      "Ë": 131,
      "Ì": 132,
      "Í": 133,
      "Î": 134,
      "Ï": 135,
      "Ð": 136,
      "Ñ": 137,
      "Ô": 138,
      "Õ": 139,
      "Ö": 140,
      "×": 141,
      "Ø": 142,
      "Ù": 143,
      "Ú": 144,
      "Û": 145,
      "à": 146,
      "á": 147,
      "â": 148,
      "ã": 149,
      "ä": 150,
      "å": 151,
      "æ": 152,
      "ç": 153,
      "è": 154,
      "é": 155,
      "ĉ": 156,
      "Ġ": 157,
      "Ģ": 158,
      "ģ": 159,
      "Ĥ": 160,
      "ĥ": 161,
      "Ħ": 162,
      "ħ": 163,
      "Ĩ": 164,
      "ĩ": 165,
      "Ī": 166,
      "ī": 167,
      "Ĭ": 168,
      "ĭ": 169,
      "Į": 170,
      "į": 171,
      "İ": 172,
      "ı": 173,
      "Ĳ": 174,
      "ĳ": 175,
      "Ĵ": 176,
      "ĵ": 177,
      "Ķ": 178,
      "ķ": 179,
      "ĸ": 180,
      "Ĺ": 181,
      "ĺ": 182,
      "Ļ": 183,
      "ļ": 184,
      "Ľ": 185,
      "ľ": 186,
      "Ŀ": 187,
      "ŀ": 188,
      "Ł": 189,
      "ł": 190,
      "Ń": 191,
      "Ġd": 192,
      "Ìģ": 193,
      "es": 194,
      "Ġl": 195,
      "en": 196,
      "on": 197,
      "re": 198,
      "Ġde": 199,
      "Ġp": 200,
      "Ġa": 201,
      "Ġs": 202,
      "an": 203,
      "Ġc": 204,
      "te": 205,
      "ti": 206,
      "Ġe": 207,
      "ou": 208,
      "ÌĢ": 209,
      "is": 210,
      "qu": 211,
      "le": 212,
      "in": 213,
      "er": 214,
      "ent": 215,
      "ar": 216,
      "Ġla": 217,
      "ne": 218,
      "Ġm": 219,
      "or": 220,
      "ur": 221,
      "Ġle": 222,
      "Ġet": 223,
      "ie": 224,
      "il": 225,
      "it": 226,
      "Ġf": 227,
      "que": 228,
      "om": 229,
      "tion": 230,
      "Ġen": 231,
      "ra": 232,
      "Ġt": 233,
      "Ġu": 234,
      "Ġdes": 235,
      "us": 236,
      "me": 237,
      "Ġles": 238,
      "Ġre": 239,
      "ce": 240,
      "al": 241,
      "ment": 242,
      "our": 243,
      "ant": 244,
      "ve": 245,
      "ro": 246,
      "Ġdu": 247,
      "est": 248,
      "Ġpar": 249,
      "ĠL": 250,
      "Ġ1": 251,
      "ÌĤ": 252,
      "Ġn": 253,
      "ont": 254,
      "Ġv": 255,
      "Ġqu": 256,
      "au": 257,
      "se": 258,
      "Ġau": 259,
      "de": 260,
      "ans": 261,
      "ri": 262,
      "ch": 263,
      "ĠC": 264,
      "ge": 265,
      "si": 266,
      "res": 267,
      "ta": 268,
      "Ġb": 269,
      "Ġest": 270,
      "ĠÂ": 271,
      "la": 272,
      "Ġse": 273,
      "pe": 274,
      "Ġcom": 275,
      "Ġun": 276,
      "ĠS": 277,
      "as": 278,
      "ite": 279,
      "ol": 280,
      "ire": 281,
      "Ġdans": 282,
      "Ġcon": 283,
      "Ġ(": 284,
      "mp": 285,
      "ation": 286,
      "ĠP": 287,
      "Ġg": 288,
      "Ġune": 289,
      "ĠM": 290,
      "ci": 291,
      "Ġce": 292,
      "ais": 293,
      "Ġque": 294,
      "Ġpour": 295,
      "lle": 296,
      "ĠA": 297,
      "Ġj": 298,
      "ue": 299,
      "at": 300,
      "Ġpl": 301,
      "Ġ2": 302,
      "Ġqui": 303,
      "li": 304,
      "ĠB": 305,
      "âĢ": 306,
      "Ġch": 307,
      "un": 308,
      "ux": 309,
      "Ġpre": 310,
      "Ġin": 311,
      "ir": 312,
      "ran": 313,
      "Ġpro": 314,
      "les": 315,
      "ter": 316,
      "Ġsur": 317,
      "ers": 318,
      "Ġ19": 319,
      "ĠD": 320,
      "ĠE": 321,
      "di": 322,
      "âĢĻ": 323,
      "00": 324,
      "ale": 325,
      "Ġplus": 326,
      "ine": 327,
      "tre": 328,
      "Ġme": 329,
      "ĠÂ»": 330,
      "Ġh": 331,
      "ĠR": 332,
      "ig": 333,
      "ille": 334,
      "ff": 335,
      "urs": 336,
      "ag": 337,
      "ac": 338,
      "os": 339,
      "Ġou": 340,
      "ĠÂ«": 341,
      "ĠI": 342,
      "ai": 343,
      "ise": 344,
      "ĠT": 345,
      "Ġan": 346,
      "ure": 347,
      "che": 348,
      "end": 349,
      "ut": 350,
      "ĠF": 351,
      "ĠG": 352,
      "Ġpe": 353,
      "ait": 354,
      "Ġsont": 355,
      "ic": 356,
      "Ġson": 357,
      "Ġr": 358,
      "ab": 359,
      "he": 360,
      "Ġsu": 361,
      "vec": 362,
      "ques": 363,
      "mb": 364,
      "Ġil": 365,
      "ort": 366,
      "ain": 367,
      "Ġavec": 368,
      "oc": 369,
      "ĠLe": 370,
      "iv": 371,
      "ul": 372,
      "une": 373,
      "ons": 374,
      "Ġne": 375,
      "Ġ:": 376,
      "tte": 377,
      "ap": 378,
      "op": 379,
      "ier": 380,
      "ois": 381,
      "ĠJ": 382,
      "Ġpas": 383,
      "tes": 384,
      "ique": 385,
      "ors": 386,
      "pre": 387,
      "ous": 388,
      "entre": 389,
      "ts": 390,
      "ĠN": 391,
      "im": 392,
      "ouv": 393,
      "aux": 394,
      "ien": 395,
      "ĠH": 396,
      "age": 397,
      "ces": 398,
      "Ġte": 399,
      "Ġsa": 400,
      "rie": 401,
      "ins": 402,
      "ĠLa": 403,
      "ui": 404,
      "ction": 405,
      "Ġex": 406,
      "uis": 407,
      "and": 408,
      "Ġra": 409,
      "ob": 410,
      "Ġav": 411,
      "am": 412,
      "aire": 413,
      "onn": 414,
      "Ġmo": 415,
      "Ġparti": 416,
      "po": 417,
      "ouve": 418,
      "Ġcomme": 419,
      "av": 420,
      "ist": 421,
      "Ġdeux": 422,
      "Ġcomm": 423,
      "Ġpr": 424,
      "Ì§": 425,
      "par": 426,
      "ru": 427,
      "Ġtra": 428,
      "ĠIl": 429,
      "ence": 430,
      "onne": 431,
      "Ġcons": 432,
      "ay": 433,
      "ĠV": 434,
      "el": 435,
      "ance": 436,
      "Ġaux": 437,
      "),": 438,
      "ub": 439,
      "lo": 440,
      "Ġnom": 441,
      "Ġmais": 442,
      "tique": 443,
      "Ġprem": 444,
      "ĠCh": 445,
      "tres": 446,
      "ord": 447,
      "ĠLes": 448,
      "du": 449,
      "ion": 450,
      "oi": 451,
      "ard": 452,
      "tu": 453,
      "mes": 454,
      "Ġcomp": 455,
      "Ġ200": 456,
      "Ġcont": 457,
      "imp": 458,
      "Ġtou": 459,
      "Ġses": 460,
      "Ġtr": 461,
      "et": 462,
      "Ġal": 463,
      "og": 464,
      "Ġdi": 465,
      "Ġ18": 466,
      "rit": 467,
      "oir": 468,
      "Ġac": 469,
      "Ġar": 470,
      "ens": 471,
      "Ġentre": 472,
      "ĠEn": 473,
      "Ġfor": 474,
      "bre": 475,
      "ente": 476,
      "ond": 477,
      "ad": 478,
      "tin": 479,
      "ments": 480,
      "alement": 481,
      "sion": 482,
      "cle": 483,
      "Ġap": 484,
      ").": 485,
      "oire": 486,
      "Ġmar": 487,
      "tions": 488,
      "Ġper": 489,
      "ours": 490,
      "ants": 491,
      "Ġ3": 492,
      "Ġ20": 493,
      "co": 494,
      "ct": 495,
      "ĠW": 496,
      "vi": 497,
      "um": 498,
      "Ġfait": 499,
      "teur": 500,
      "ĠCe": 501,
      "Ġmon": 502,
      "oy": 503,
      "oit": 504,
      "Ġfin": 505,
      "ot": 506,
      "tif": 507,
      "cu": 508,
      "Ġcette": 509,
      "ing": 510,
      "Ġter": 511,
      "rois": 512,
      "Le": 513,
      "Ġ;": 514,
      "tie": 515,
      "Ġont": 516,
      "use": 517,
      "ble": 518,
      "tru": 519,
      "Ġdis": 520,
      "Ġsie": 521,
      "ranc": 522,
      "Ġo": 523,
      "ĠK": 524,
      "Ġpla": 525,
      "nes": 526,
      "Ġno": 527,
      "ĠO": 528,
      "Ġpo": 529,
      "Ġgran": 530,
      "Ġro": 531,
      "insi": 532,
      "Ġge": 533,
      "amp": 534,
      "ante": 535,
      "sent": 536,
      "lles": 537,
      "ex": 538,
      "ussi": 539,
      "orte": 540,
      "Ġma": 541,
      "iques": 542,
      "Ġje": 543,
      "ations": 544,
      "igne": 545,
      "Ġleur": 546,
      "des": 547,
      ",.": 548,
      "cip": 549,
      "Ġlui": 550,
      "Ġnouve": 551,
      "ĠDe": 552,
      "ffe": 553,
      "Ġcar": 554,
      "La": 555,
      "Ġ201": 556,
      "ph": 557,
      "Ġfe": 558,
      "Ġ4": 559,
      "Ġrec": 560,
      "ĠÂ».": 561,
      "ten": 562,
      "iste": 563,
      "ert": 564,
      "tis": 565,
      "Ġdont": 566,
      "Ġimp": 567,
      "Ġpers": 568,
      "Ġalors": 569,
      "ĠX": 570,
      "ris": 571,
      "able": 572,
      "ĠPar": 573,
      "Ġnombre": 574,
      "Ġaussi": 575,
      "rent": 576,
      "Ġes": 577,
      "rou": 578,
      "Ġche": 579,
      "mbre": 580,
      "Ìģ,": 581,
      "Ġas": 582,
      "endant": 583,
      "Ġsous": 584,
      "Ġanne": 585,
      "Ġres": 586,
      "int": 587,
      "be": 588,
      "ĠU": 589,
      "tant": 590,
      "Ġ%": 591,
      "ide": 592,
      "ures": 593,
      "ang": 594,
      "enne": 595,
      "Ġor": 596,
      "Ġainsi": 597,
      "tra": 598,
      "Ġpeu": 599,
      "Ġ5": 600,
      "ser": 601,
      "Ġtrois": 602,
      "mi": 603,
      "met": 604,
      "Ġpuis": 605,
      "galement": 606,
      "aires": 607,
      "Ġlors": 608,
      "aine": 609,
      "ĠMar": 610,
      "Ġfil": 611,
      "ales": 612,
      "ong": 613,
      "Ġser": 614,
      "til": 615,
      "Ġville": 616,
      "Ġces": 617,
      "ven": 618,
      "id": 619,
      "uer": 620,
      "Ġpos": 621,
      "puis": 622,
      "Ġder": 623,
      "agne": 624,
      "Ġmil": 625,
      "Ġ199": 626,
      "man": 627,
      "ĠÂ»,": 628,
      "Ġti": 629,
      "ate": 630,
      "Ġju": 631,
      "Ġpremie": 632,
      "fin": 633,
      "th": 634,
      "ace": 635,
      "ÌĪ": 636,
      "fe": 637,
      "Ġco": 638,
      "Ġcol": 639,
      "ĠRe": 640,
      "Ġtre": 641,
      "ver": 642,
      "II": 643,
      "ĠFran": 644,
      "tait": 645,
      "Ġprin": 646,
      "En": 647,
      "Ġcou": 648,
      "Ġins": 649,
      "ric": 650,
      "pose": 651,
      "Ġelle": 652,
      "Åĵ": 653,
      "Ġcre": 654,
      "ges": 655,
      "ill": 656,
      "ubli": 657,
      "ole": 658,
      "Ġjus": 659,
      "Ġba": 660,
      "tiv": 661,
      "tive": 662,
      "ign": 663,
      "Ġsou": 664,
      "lan": 665,
      "lement": 666,
      "las": 667,
      "Ġfranc": 668,
      "for": 669,
      "ient": 670,
      "ense": 671,
      "Ġy": 672,
      "ays": 673,
      "ieurs": 674,
      "tiques": 675,
      "ula": 676,
      "ieu": 677,
      "Ġdern": 678,
      "va": 679,
      "min": 680,
      "ouver": 681,
      "ls": 682,
      "aint": 683,
      "000": 684,
      "pp": 685,
      "Ġapre": 686,
      "its": 687,
      "Ġob": 688,
      "mble": 689,
      "Ġtour": 690,
      "ron": 691,
      "alle": 692,
      "Ġsec": 693,
      "Ġat": 694,
      "erta": 695,
      "ture": 696,
      "per": 697,
      "oue": 698,
      "ines": 699,
      "mps": 700,
      "Ġcontre": 701,
      "Ġinter": 702,
      "Ġ17": 703,
      "ĠAn": 704,
      "ĠJe": 705,
      "Ġthe": 706,
      "are": 707,
      "ĠFrance": 708,
      "Ġpersonn": 709,
      "Ġren": 710,
      "Ġpremier": 711,
      "qui": 712,
      "lus": 713,
      "Ġ000": 714,
      "Ġman": 715,
      "Ġcommun": 716,
      "oli": 717,
      "ore": 718,
      "ass": 719,
      "if": 720,
      "Ġpeut": 721,
      "Ìģ.": 722,
      "Ġdepuis": 723,
      "Ġad": 724,
      "Ġcour": 725,
      "ma": 726,
      "tat": 727,
      "Ġcha": 728,
      "ages": 729,
      "mment": 730,
      "Ġsit": 731,
      "olog": 732,
      "alite": 733,
      "cer": 734,
      "dent": 735,
      "Ġrep": 736,
      "ration": 737,
      "lie": 738,
      "Ġ6": 739,
      "Ġpartie": 740,
      "su": 741,
      "Les": 742,
      "Ġplace": 743,
      "Ġsy": 744,
      "ome": 745,
      "ches": 746,
      "Ġ8": 747,
      "je": 748,
      "iers": 749,
      "Ġsi": 750,
      "emp": 751,
      "Ġoc": 752,
      "19": 753,
      "Ġpays": 754,
      "Ġplusieurs": 755,
      "Ġvers": 756,
      "Ġbe": 757,
      "Ġtout": 758,
      "crit": 759,
      "Ġve": 760,
      "Ġacc": 761,
      "Ġsans": 762,
      "Ġgra": 763,
      "all": 764,
      "ral": 765,
      "Ġbien": 766,
      "Ġab": 767,
      "titu": 768,
      "core": 769,
      "tement": 770,
      "onde": 771,
      "tit": 772,
      "Ġhe": 773,
      "cien": 774,
      "Ġprincip": 775,
      "ope": 776,
      "Ġpermet": 777,
      "omme": 778,
      "Ġprodu": 779,
      "lu": 780,
      "isation": 781,
      "Ġrepre": 782,
      "ton": 783,
      "Ġpop": 784,
      "Ġri": 785,
      "oci": 786,
      "mis": 787,
      "..": 788,
      "ĠSaint": 789,
      "aient": 790,
      "Ġk": 791,
      "Ġcerta": 792,
      "teurs": 793,
      "Ġconstru": 794,
      "Ġconn": 795,
      "gion": 796,
      "Ġ7": 797,
      "Ġans": 798,
      "ib": 799,
      "Ġmonde": 800,
      "Ġjusqu": 801,
      "Ġavant": 802,
      "Ġret": 803,
      "Ġph": 804,
      "Ġutil": 805,
      "gan": 806,
      "ode": 807,
      "Ġ9": 808,
      "An": 809,
      "aut": 810,
      "illes": 811,
      "iss": 812,
      "Ġmin": 813,
      "Ġmont": 814,
      "Ġquel": 815,
      "uerre": 816,
      "Ġquat": 817,
      "uv": 818,
      "onc": 819,
      "ieux": 820,
      "Ġcor": 821,
      "lon": 822,
      "Ġpubli": 823,
      "pes": 824,
      "Ġgrand": 825,
      "Ġexp": 826,
      "vient": 827,
      "isse": 828,
      "cri": 829,
      "Ġlong": 830,
      "Ġaut": 831,
      "Ġenv": 832,
      "ies": 833,
      "but": 834,
      "gre": 835,
      "Ġni": 836,
      "jet": 837,
      "Ġnota": 838,
      "Ġpoli": 839,
      "ĠSe": 840,
      "endre": 841,
      "ains": 842,
      "cher": 843,
      "mo": 844,
      "Ġpopula": 845,
      "Ġ198": 846,
      "ner": 847,
      "Ġautres": 848,
      "vel": 849,
      "Ġim": 850,
      "olu": 851,
      "Ġdiv": 852,
      "Ġsp": 853,
      "anne": 854,
      "Ġcl": 855,
      "Ġfois": 856,
      "sente": 857,
      "ame": 858,
      "Ġleurs": 859,
      "Ġconf": 860,
      "ues": 861,
      "Ġtrans": 862,
      "Ġfilm": 863,
      "nent": 864,
      "llement": 865,
      "Ġjoue": 866,
      "Ġsta": 867,
      "Ġfut": 868,
      "Un": 869,
      "Ġoff": 870,
      "Ġsuiv": 871,
      "dre": 872,
      "Ġprof": 873,
      "ade": 874,
      "vent": 875,
      "ires": 876,
      "Ġon": 877,
      "dition": 878,
      "Ġtemps": 879,
      "Ġass": 880,
      "oute": 881,
      "mer": 882,
      "Ġencore": 883,
      "inte": 884,
      "Ġligne": 885,
      "cep": 886,
      "mpe": 887,
      "Ġnation": 888,
      "Ġgrou": 889,
      "Ġprop": 890,
      "Ġdiffe": 891,
      "fois": 892,
      "Ġdev": 893,
      "asse": 894,
      "Ġimport": 895,
      "Ġjour": 896,
      "Ġ15": 897,
      "cul": 898,
      "ĠThe": 899,
      "Ġ194": 900,
      "side": 901,
      "Ġapp": 902,
      "abit": 903,
      "ĠâĢ": 904,
      "Ġcul": 905,
      "ils": 906,
      "Ġnotamment": 907,
      "ren": 908,
      "Ġremp": 909,
      "alise": 910,
      "Ġcel": 911,
      "Ġsoit": 912,
      "out": 913,
      "omp": 914,
      "gi": 915,
      "ice": 916,
      "nement": 917,
      "Ġclas": 918,
      "pendant": 919,
      "ĠElle": 920,
      "der": 921,
      "Ġvis": 922,
      "Ġ197": 923,
      "Ġappar": 924,
      "Ġmal": 925,
      "aute": 926,
      "Ġpri": 927,
      "ouvent": 928,
      "ck": 929,
      "ĠAu": 930,
      "isme": 931,
      "Ġ16": 932,
      "Ġcap": 933,
      "lier": 934,
      "ze": 935,
      "Ġmoins": 936,
      "uses": 937,
      "ry": 938,
      "Ġfaire": 939,
      "ler": 940,
      "ici": 941,
      "ĠParis": 942,
      "ste": 943,
      "ose": 944,
      "rib": 945,
      "Ġrom": 946,
      "ctions": 947,
      "Ġspe": 948,
      "mar": 949,
      "arge": 950,
      "rement": 951,
      "quipe": 952,
      "istoire": 953,
      "Ġconc": 954,
      "ty": 955,
      "Ġsep": 956,
      "urant": 957,
      "ĠCette": 958,
      "Ġcan": 959,
      "Ġsuc": 960,
      "Ġ196": 961,
      "Ġver": 962,
      "ia": 963,
      "Ġdire": 964,
      "ann": 965,
      "Ġcelui": 966,
      "elle": 967,
      "velop": 968,
      "urope": 969,
      "con": 970,
      "Ġpouv": 971,
      "sition": 972,
      "Ġtous": 973,
      "Ġcelle": 974,
      "aison": 975,
      "rique": 976,
      "oie": 977,
      "ĠPe": 978,
      "mand": 979,
      "ĠQ": 980,
      "Ġame": 981,
      "Ġdom": 982,
      "gne": 983,
      "tro": 984,
      "ĠAl": 985,
      "iens": 986,
      "antes": 987,
      "tab": 988,
      "Ġsce": 989,
      "Ġchamp": 990,
      "ĠNe": 991,
      "gl": 992,
      "cla": 993,
      "ov": 994,
      "omb": 995,
      "Ġreste": 996,
      "Â«": 997,
      "Ġquatre": 998,
      "ud": 999,
      "art": 1000,
      "Ġca": 1001,
      "ĠDans": 1002,
      "ocie": 1003,
      "Ġmen": 1004,
      "rise": 1005,
      "illa": 1006,
      "Ġmai": 1007,
      "Ġeff": 1008,
      "cou": 1009,
      "tal": 1010,
      "tats": 1011,
      "Ġconside": 1012,
      "tent": 1013,
      "ule": 1014,
      "Ġcommune": 1015,
      "enti": 1016,
      "ute": 1017,
      "rer": 1018,
      "one": 1019,
      "aise": 1020,
      "ix": 1021,
      "autres": 1022,
      "ĠUn": 1023,
      "Ġpie": 1024,
      "Ġpartir": 1025,
      "Ġdro": 1026,
      "od": 1027,
      "Ġinc": 1028,
      "Ġforme": 1029,
      "Ġ10": 1030,
      "ros": 1031,
      "Ġloc": 1032,
      "ites": 1033,
      "poque": 1034,
      "ĠY": 1035,
      "Ġsuite": 1036,
      "Ġnon": 1037,
      "Ġgrande": 1038,
      "Ġdonne": 1039,
      "Ġcours": 1040,
      "istes": 1041,
      "Ġutilise": 1042,
      "Ġmilli": 1043,
      "Ġvie": 1044,
      "Ġsitue": 1045,
      "ature": 1046,
      "Ġrela": 1047,
      "Ġavoir": 1048,
      "Ġils": 1049,
      "Ġmort": 1050,
      "Ġquelques": 1051,
      "Ġvol": 1052,
      "Ġmus": 1053,
      "ves": 1054,
      "Åĵuv": 1055,
      "Ġdonc": 1056,
      "ses": 1057,
      "Ġlieu": 1058,
      "Ġpublic": 1059,
      "istor": 1060,
      "Ġfer": 1061,
      "mon": 1062,
      "ĠRoy": 1063,
      "ĠGran": 1064,
      "sance": 1065,
      "Ġhabit": 1066,
      "20": 1067,
      "Ġnouveau": 1068,
      "entra": 1069,
      "Ġjeu": 1070,
      "ĠChar": 1071,
      "ich": 1072,
      "Ġmat": 1073,
      "uel": 1074,
      "icie": 1075,
      "ĠMe": 1076,
      "Ġguerre": 1077,
      "ĠCha": 1078,
      "Ġmet": 1079,
      "Ġgroupe": 1080,
      "gue": 1081,
      "Ġtrav": 1082,
      "ger": 1083,
      "ict": 1084,
      "Ġtrava": 1085,
      "agn": 1086,
      "Ġsol": 1087,
      "Ġrap": 1088,
      "ogra": 1089,
      "gie": 1090,
      "ents": 1091,
      "ouis": 1092,
      "lace": 1093,
      "Ġcentre": 1094,
      "Ġparc": 1095,
      "Ġcin": 1096,
      "rop": 1097,
      "Ġof": 1098,
      "Ġpres": 1099,
      "Ġmoy": 1100,
      "Ġcas": 1101,
      "ca": 1102,
      "Ġfam": 1103,
      "Ġfac": 1104,
      "rait": 1105,
      "site": 1106,
      "ari": 1107,
      "Ġemp": 1108,
      "ĠBe": 1109,
      "Ġinte": 1110,
      "Ġouv": 1111,
      "Ġavait": 1112,
      "18": 1113,
      "ĠJean": 1114,
      "ision": 1115,
      "ane": 1116,
      "Ġfre": 1117,
      "aille": 1118,
      "tier": 1119,
      "Ġport": 1120,
      "Ġtoute": 1121,
      "Ġtrouve": 1122,
      "tine": 1123,
      "Ġ195": 1124,
      "veloppe": 1125,
      "Xe": 1126,
      "mine": 1127,
      "Ġpart": 1128,
      "Ġnu": 1129,
      "Ġz": 1130,
      "Ġhom": 1131,
      "aines": 1132,
      "Ġnive": 1133,
      "Ġdernier": 1134,
      "iron": 1135,
      "ath": 1136,
      "ĠâĢĶ": 1137,
      "ĠAr": 1138,
      "Ġrapp": 1139,
      "ke": 1140,
      "iver": 1141,
      "ienne": 1142,
      "ote": 1143,
      "Ġnombreux": 1144,
      "cont": 1145,
      "acte": 1146,
      "ĠGe": 1147,
      "tivite": 1148,
      "Ġaff": 1149,
      "land": 1150,
      "rage": 1151,
      "ivre": 1152,
      "ili": 1153,
      "ats": 1154,
      "Ġporte": 1155,
      "Ġmis": 1156,
      "ĠFranc": 1157,
      "az": 1158,
      "olution": 1159,
      "orite": 1160,
      "mation": 1161,
      "tation": 1162,
      "Ġgouver": 1163,
      "cl": 1164,
      "Ġ193": 1165,
      "Ġcri": 1166,
      "gra": 1167,
      "urent": 1168,
      "Ġappe": 1169,
      "aur": 1170,
      "vo": 1171,
      "Ġorgan": 1172,
      "Ġ14": 1173,
      "oupe": 1174,
      "illet": 1175,
      "val": 1176,
      "the": 1177,
      "Ġselon": 1178,
      "Ġdou": 1179,
      "Ġ12": 1180,
      "Ġconse": 1181,
      "ras": 1182,
      "Ġautre": 1183,
      "ilite": 1184,
      "iser": 1185,
      "Ġsud": 1186,
      "Ġdiff": 1187,
      "vier": 1188,
      "Ġrest": 1189,
      "sions": 1190,
      "oh": 1191,
      "Ar": 1192,
      "tifs": 1193,
      "ograph": 1194,
      "Ġnord": 1195,
      "Ġexemp": 1196,
      "ĠXV": 1197,
      "Ġcontra": 1198,
      "Ie": 1199,
      "ĠPour": 1200,
      "Ġ13": 1201,
      "Ġjan": 1202,
      "yant": 1203,
      "mpire": 1204,
      "part": 1205,
      "itaire": 1206,
      "Ġpopulation": 1207,
      "Ġli": 1208,
      "rier": 1209,
      "Ġcolle": 1210,
      "ĠCar": 1211,
      "riode": 1212,
      "oph": 1213,
      "mande": 1214,
      "Ġalle": 1215,
      "Ġnouvelle": 1216,
      "Ġterrit": 1217,
      "ile": 1218,
      "igine": 1219,
      "Ġcompte": 1220,
      "rive": 1221,
      "ierre": 1222,
      "Ġmatch": 1223,
      "ps": 1224,
      "reur": 1225,
      "Ġsouvent": 1226,
      "Ġ-": 1227,
      "ison": 1228,
      "De": 1229,
      "Ġposse": 1230,
      "Ġcomple": 1231,
      "oires": 1232,
      "rend": 1233,
      "ĠIn": 1234,
      "Ġtard": 1235,
      "ange": 1236,
      "ĠLouis": 1237,
      "Ġpolitique": 1238,
      "to": 1239,
      "Ġtitre": 1240,
      "Ġretr": 1241,
      "Ġclub": 1242,
      "Ġfond": 1243,
      "Ġindi": 1244,
      "Ġmes": 1245,
      "tien": 1246,
      "Ġmois": 1247,
      "ions": 1248,
      "ril": 1249,
      "jours": 1250,
      "lique": 1251,
      "ĠCes": 1252,
      "Ġclasse": 1253,
      "Ġdevient": 1254,
      "taient": 1255,
      "Ġfon": 1256,
      "Ġsyste": 1257,
      "Ġjuin": 1258,
      "oin": 1259,
      "Ġsub": 1260,
      "Ġbase": 1261,
      "ĠTh": 1262,
      "Ġculture": 1263,
      "Ġpendant": 1264,
      "Ġmain": 1265,
      "ourg": 1266,
      "exp": 1267,
      "Ġdernie": 1268,
      "cte": 1269,
      "tionne": 1270,
      "ande": 1271,
      "Ġpeti": 1272,
      "Ġseul": 1273,
      "elles": 1274,
      "Ġpouvoir": 1275,
      "Ġeffet": 1276,
      "iter": 1277,
      "ĠZ": 1278,
      "Ġquar": 1279,
      "position": 1280,
      "Ġpasse": 1281,
      "Au": 1282,
      "andis": 1283,
      "histoire": 1284,
      "ja": 1285,
      "Ġvi": 1286,
      "Ġsucce": 1287,
      "Ġniveau": 1288,
      "ney": 1289,
      "arde": 1290,
      "app": 1291,
      "Ġpa": 1292,
      "xe": 1293,
      "Ġten": 1294,
      "Ġroy": 1295,
      "Ġty": 1296,
      "yn": 1297,
      "aul": 1298,
      "oles": 1299,
      "Ġfig": 1300,
      "obre": 1301,
      "Ġafin": 1302,
      "mme": 1303,
      "Ġann": 1304,
      "Ġnature": 1305,
      "Ġdoit": 1306,
      "Ġrou": 1307,
      "Ġsecond": 1308,
      "ances": 1309,
      "ĠUne": 1310,
      "Ġag": 1311,
      "Ġvoi": 1312,
      "Ġhistor": 1313,
      "rence": 1314,
      "Ġjanvier": 1315,
      "In": 1316,
      "IS": 1317,
      "ball": 1318,
      "dus": 1319,
      "tives": 1320,
      "Ġjuillet": 1321,
      "Ġchaque": 1322,
      "anc": 1323,
      "tient": 1324,
      "Ġcommer": 1325,
      "Ġsoci": 1326,
      "Ġvoit": 1327,
      "dif": 1328,
      "rieur": 1329,
      "quer": 1330,
      "Ġtoujours": 1331,
      "Ġmode": 1332,
      "itte": 1333,
      "Ġsaison": 1334,
      "...": 1335,
      "Ġeffe": 1336,
      "tobre": 1337,
      "Ġreli": 1338,
      "nation": 1339,
      "Ġpu": 1340,
      "sence": 1341,
      "Ġ[": 1342,
      "Ġroi": 1343,
      "glise": 1344,
      "die": 1345,
      "tembre": 1346,
      "lic": 1347,
      "ables": 1348,
      "amb": 1349,
      "Ġpra": 1350,
      "cembre": 1351,
      "Ġcaracte": 1352,
      "Ġnav": 1353,
      "rant": 1354,
      "time": 1355,
      "ene": 1356,
      "Ġaur": 1357,
      "chn": 1358,
      "tudi": 1359,
      "Ġinf": 1360,
      "gle": 1361,
      "uf": 1362,
      "titue": 1363,
      "Ġbut": 1364,
      "Ġconser": 1365,
      "ha": 1366,
      "once": 1367,
      "suite": 1368,
      "Ġmillions": 1369,
      "Ġcamp": 1370,
      "Ġseptembre": 1371,
      "cs": 1372,
      "Ġrencont": 1373,
      "volution": 1374,
      "arch": 1375,
      "BN": 1376,
      "Ġayant": 1377,
      "Ġcinq": 1378,
      "ÌĮ": 1379,
      "iles": 1380,
      "Ġpass": 1381,
      "lin": 1382,
      "Ġenf": 1383,
      "Ġdurant": 1384,
      "Empire": 1385,
      "Ġmars": 1386,
      "ĠXI": 1387,
      "ditions": 1388,
      "lais": 1389,
      "Ġcomb": 1390,
      "Ġmarque": 1391,
      "Ġpersonnes": 1392,
      "Ġreg": 1393,
      "laire": 1394,
      "gu": 1395,
      "Ġseu": 1396,
      "ionn": 1397,
      "illi": 1398,
      "Ġcertains": 1399,
      "Ġdisp": 1400,
      "phe": 1401,
      "iel": 1402,
      "Ġcontin": 1403,
      "ital": 1404,
      "istre": 1405,
      "ourd": 1406,
      "Ġjours": 1407,
      "conom": 1408,
      "Åĵuvre": 1409,
      "Ġsor": 1410,
      "Ġtoutes": 1411,
      "Ġva": 1412,
      "teau": 1413,
      "ĠCoupe": 1414,
      "Ġto": 1415,
      "cture": 1416,
      "Ġess": 1417,
      "Ġcet": 1418,
      "cess": 1419,
      "ĠRo": 1420,
      "Ġkm": 1421,
      "Ġsocie": 1422,
      "ĠDis": 1423,
      "orm": 1424,
      "ISBN": 1425,
      "ple": 1426,
      "Ġsign": 1427,
      "Ġgouvernement": 1428,
      "semble": 1429,
      "Ġchez": 1430,
      "ĠIls": 1431,
      "Ġnombreuses": 1432,
      "Ġbou": 1433,
      "ication": 1434,
      "ll": 1435,
      "imite": 1436,
      "Ġop": 1437,
      "Ġref": 1438,
      "ick": 1439,
      "Ġpeuvent": 1440,
      "Ġceux": 1441,
      "orts": 1442,
      "ho": 1443,
      "origine": 1444,
      "tivement": 1445,
      "Ġfa": 1446,
      "Ġtandis": 1447,
      "Ġoctobre": 1448,
      "pern": 1449,
      "Ġplu": 1450,
      "ateur": 1451,
      "son": 1452,
      "Ġauc": 1453,
      "lant": 1454,
      "bles": 1455,
      "Ġmeille": 1456,
      "Ġhabitants": 1457,
      "Ġcent": 1458,
      "sible": 1459,
      "voir": 1460,
      "aissance": 1461,
      "atri": 1462,
      "Ġhommes": 1463,
      "Ġatte": 1464,
      "Ġparticu": 1465,
      "ĠDes": 1466,
      "pond": 1467,
      "ĠJoh": 1468,
      "Ġprote": 1469,
      "cent": 1470,
      "partement": 1471,
      "Ġpoint": 1472,
      "Ġmondi": 1473,
      "Ġdess": 1474,
      "ĠCom": 1475,
      "unes": 1476,
      "ĠOn": 1477,
      "ences": 1478,
      "50": 1479,
      "Ġ11": 1480,
      "Ġcro": 1481,
      "quent": 1482,
      "ok": 1483,
      "ĠIII": 1484,
      "st": 1485,
      "Ġbeau": 1486,
      "Ġpub": 1487,
      "Ġanim": 1488,
      "Ġvict": 1489,
      "Ġdeuxie": 1490,
      "apole": 1491,
      "Ġmas": 1492,
      "Ġ192": 1493,
      "bum": 1494,
      "Ġcir": 1495,
      "uss": 1496,
      "Ġavril": 1497,
      "Ġconstruction": 1498,
      "ak": 1499,
      "coup": 1500,
      "Ġfont": 1501,
      "Ġtant": 1502,
      "Ġbas": 1503,
      "Ġang": 1504,
      "Unis": 1505,
      "lect": 1506,
      "apon": 1507,
      "forme": 1508,
      "aume": 1509,
      "Ġgre": 1510,
      "Ġpremiers": 1511,
      "Ġsite": 1512,
      "sif": 1513,
      "Ġplan": 1514,
      "Ġtechn": 1515,
      "adi": 1516,
      "cur": 1517,
      "cole": 1518,
      "arie": 1519,
      "ĠSt": 1520,
      "Ġsal": 1521,
      "Ġface": 1522,
      "mbres": 1523,
      "vement": 1524,
      "Ġ30": 1525,
      "autre": 1526,
      "ateurs": 1527,
      "publi": 1528,
      "Ġexemple": 1529,
      "Ġpublie": 1530,
      "duit": 1531,
      "ition": 1532,
      "uit": 1533,
      "ende": 1534,
      "ĠMais": 1535,
      "Ġfra": 1536,
      "Ġtrou": 1537,
      "entrai": 1538,
      "Ġsupp": 1539,
      "ime": 1540,
      "Ġsty": 1541,
      "ĠDisney": 1542,
      "Ġcompe": 1543,
      "ppe": 1544,
      "Ġroman": 1545,
      "sionne": 1546,
      "Ġprofes": 1547,
      "Ġatt": 1548,
      "Ġfonction": 1549,
      "Ġraison": 1550,
      "Ġensuite": 1551,
      "Ġprend": 1552,
      "Ġlang": 1553,
      "vembre": 1554,
      "iti": 1555,
      "ber": 1556,
      "gent": 1557,
      "pernay": 1558,
      "Ġ191": 1559,
      "cteur": 1560,
      "Ġmise": 1561,
      "vere": 1562,
      "ivers": 1563,
      "Ġconstitue": 1564,
      "eau": 1565,
      "Ġlarge": 1566,
      "ĠSon": 1567,
      "Ġsour": 1568,
      "acc": 1569,
      "Ġparticul": 1570,
      "Ġfamille": 1571,
      "Ġparfois": 1572,
      "ĠCan": 1573,
      "Ġrend": 1574,
      "cident": 1575,
      "Ġdeven": 1576,
      "Ġam": 1577,
      "Dans": 1578,
      "na": 1579,
      "Ġnovembre": 1580,
      "ones": 1581,
      "ĠGu": 1582,
      "Ġpersonne": 1583,
      "Ġaou": 1584,
      "cles": 1585,
      "Ġcompose": 1586,
      "ĠGrand": 1587,
      "78": 1588,
      "ow": 1589,
      "uelle": 1590,
      "leve": 1591,
      "ith": 1592,
      "ĠMal": 1593,
      "rite": 1594,
      "Ġmaj": 1595,
      "Ġsix": 1596,
      "sident": 1597,
      "Ġprojet": 1598,
      "Ġfils": 1599,
      "Ġsau": 1600,
      "Ġhum": 1601,
      "aff": 1602,
      "vant": 1603,
      "Ġespe": 1604,
      "ologie": 1605,
      "aud": 1606,
      "ries": 1607,
      "cta": 1608,
      "Ġdix": 1609,
      "Ġnational": 1610,
      "Ġofficie": 1611,
      "mmes": 1612,
      "Ġproduction": 1613,
      "tabl": 1614,
      "ĠJohn": 1615,
      "ug": 1616,
      "Ġent": 1617,
      "ori": 1618,
      "Ġnomme": 1619,
      "action": 1620,
      "resse": 1621,
      "olie": 1622,
      "nie": 1623,
      "ĠMi": 1624,
      "ĠSte": 1625,
      "Ġmor": 1626,
      "Ġdist": 1627,
      "Ġdate": 1628,
      "Ġ25": 1629,
      "cupe": 1630,
      "oly": 1631,
      "trie": 1632,
      "Ġdoc": 1633,
      "Ġ186": 1634,
      "Ġterritoire": 1635,
      "ttes": 1636,
      "ritann": 1637,
      "vice": 1638,
      "ĠSav": 1639,
      "ĠMa": 1640,
      "Ġlie": 1641,
      "ĠPh": 1642,
      "uve": 1643,
      "ys": 1644,
      "quel": 1645,
      "Ġtroisie": 1646,
      "mpereur": 1647,
      "rige": 1648,
      "nal": 1649,
      "tage": 1650,
      "ye": 1651,
      "Ġaccue": 1652,
      "Ġlivre": 1653,
      "Ġbar": 1654,
      "Ġconcer": 1655,
      "mie": 1656,
      "Ġcommence": 1657,
      "jets": 1658,
      "ĠCharles": 1659,
      "vie": 1660,
      "ĠApre": 1661,
      "ĠAinsi": 1662,
      "uni": 1663,
      "hui": 1664,
      "ares": 1665,
      "cide": 1666,
      "terre": 1667,
      "acre": 1668,
      "Ġpersonnages": 1669,
      "onner": 1670,
      "Ġ2006": 1671,
      "ĠQu": 1672,
      "can": 1673,
      "ĠHe": 1674,
      "Ġautour": 1675,
      "inter": 1676,
      "ĠCependant": 1677,
      "issement": 1678,
      "Ġcependant": 1679,
      "vrier": 1680,
      "Ġancien": 1681,
      "Ġtex": 1682,
      "Ġmuse": 1683,
      "Ġvilla": 1684,
      "Ġrapide": 1685,
      "Ġbeaucoup": 1686,
      "ĠRob": 1687,
      "ack": 1688,
      "Ġcal": 1689,
      "ĠPre": 1690,
      "Ġblan": 1691,
      "Ġjeune": 1692,
      "ression": 1693,
      "Ġvoy": 1694,
      "Ġcorps": 1695,
      "Ġreconn": 1696,
      "act": 1697,
      "Ġseulement": 1698,
      "anci": 1699,
      "Ġcause": 1700,
      "ars": 1701,
      "rises": 1702,
      "Ġtradition": 1703,
      "Ġretrouve": 1704,
      "Ġ190": 1705,
      "Ġcontro": 1706,
      "dic": 1707,
      "Ġmembres": 1708,
      "Ġdroit": 1709,
      "ĠBer": 1710,
      "ĠDav": 1711,
      "Ġparticulier": 1712,
      "her": 1713,
      "talle": 1714,
      "Ġtrop": 1715,
      "oll": 1716,
      "Ġcharge": 1717,
      "Ġis": 1718,
      "ĠIs": 1719,
      "Ġ2007": 1720,
      "itation": 1721,
      "Ġelles": 1722,
      "Ġpris": 1723,
      "Ġ2009": 1724,
      "Ġ2010": 1725,
      "Ġretour": 1726,
      "Ġappele": 1727,
      "Ġparticulie": 1728,
      "Ġeux": 1729,
      "luence": 1730,
      "quelle": 1731,
      "ĠRoyan": 1732,
      "cre": 1733,
      "arme": 1734,
      "ulte": 1735,
      "Ġtravail": 1736,
      "orie": 1737,
      "Ġsimp": 1738,
      "Ġdevant": 1739,
      "Ġenviron": 1740,
      "oge": 1741,
      "tout": 1742,
      "Ce": 1743,
      "face": 1744,
      "Ġpor": 1745,
      "Ġlaquelle": 1746,
      "seau": 1747,
      "serve": 1748,
      "Ġmouve": 1749,
      "tition": 1750,
      "rents": 1751,
      "temps": 1752,
      "sique": 1753,
      "Ġjeunes": 1754,
      "pec": 1755,
      "ĠMont": 1756,
      "urb": 1757,
      "ĠXIXe": 1758,
      "Ġtravaux": 1759,
      "alif": 1760,
      "nant": 1761,
      "ĠBr": 1762,
      "agit": 1763,
      "Ġ0": 1764,
      "Ġparmi": 1765,
      "aste": 1766,
      "bor": 1767,
      "tail": 1768,
      "Ġatta": 1769,
      "Ġcad": 1770,
      "usse": 1771,
      "Al": 1772,
      "Ġmoyenne": 1773,
      "veloppement": 1774,
      "ctue": 1775,
      "pend": 1776,
      "ĠHen": 1777,
      "Ġrapport": 1778,
      "ouvert": 1779,
      "Ġ2008": 1780,
      "Ġversion": 1781,
      "Ġeurope": 1782,
      "ouest": 1783,
      "rime": 1784,
      "Ġtemp": 1785,
      "ennes": 1786,
      ",,": 1787,
      "apre": 1788,
      "oot": 1789,
      "ront": 1790,
      "estion": 1791,
      "Ġplupart": 1792,
      "arc": 1793,
      "Ġtravers": 1794,
      "vin": 1795,
      "ument": 1796,
      "Ġaurait": 1797,
      "verse": 1798,
      "Ġtraite": 1799,
      "Ġinternation": 1800,
      "Ġdemande": 1801,
      "Ġconte": 1802,
      "ĠSa": 1803,
      "Ġlongue": 1804,
      "itie": 1805,
      "jourd": 1806,
      "illeurs": 1807,
      "mont": 1808,
      "ĠXVII": 1809,
      "ĠSavoie": 1810,
      "Ġchef": 1811,
      "Ġimportant": 1812,
      "Ġanci": 1813,
      "amais": 1814,
      "Ġ189": 1815,
      "Ġjou": 1816,
      "Ġsemble": 1817,
      "Ġw": 1818,
      "Ġbat": 1819,
      "vers": 1820,
      "rieure": 1821,
      "ĠChamp": 1822,
      "Ġcite": 1823,
      "yp": 1824,
      "ĠCon": 1825,
      "Ġchans": 1826,
      "ordre": 1827,
      "Ġfinale": 1828,
      "voque": 1829,
      "Ġ21": 1830,
      "crip": 1831,
      "Ġzone": 1832,
      "ards": 1833,
      "leur": 1834,
      "itaires": 1835,
      "Ġfais": 1836,
      "Ġstyle": 1837,
      "Il": 1838,
      "Ġesp": 1839,
      "organ": 1840,
      "ĠCl": 1841,
      "Ġmom": 1842,
      "Ġmanie": 1843,
      "Ġchampionn": 1844,
      "minist": 1845,
      "ĠSi": 1846,
      "quie": 1847,
      "Ġfort": 1848,
      "tt": 1849,
      "avant": 1850,
      "tiers": 1851,
      "elon": 1852,
      "Ġjamais": 1853,
      "ices": 1854,
      "dite": 1855,
      "ombe": 1856,
      "Ġpersonnage": 1857,
      "Ġsitu": 1858,
      "oe": 1859,
      "rain": 1860,
      "ivent": 1861,
      "Ġtot": 1862,
      "ĠNew": 1863,
      "Ġconstitu": 1864,
      "Ġdivers": 1865,
      "Ġpropose": 1866,
      "Ġciv": 1867,
      "ouse": 1868,
      "Ġkil": 1869,
      "Ġsurtout": 1870,
      "ley": 1871,
      "Ġmaison": 1872,
      "Ġspor": 1873,
      "Ġfai": 1874,
      "Ġfour": 1875,
      "Ġproble": 1876,
      "ensemble": 1877,
      "Ġcommunes": 1878,
      "Ġmag": 1879,
      "Ġrencontre": 1880,
      "Ġorig": 1881,
      "vis": 1882,
      "Ġgrands": 1883,
      "lation": 1884,
      "ĠNapole": 1885,
      "rale": 1886,
      "Ġpoe": 1887,
      "ĠCons": 1888,
      "Ġrue": 1889,
      "ĠNord": 1890,
      "Ġtype": 1891,
      "17": 1892,
      "Ġsens": 1893,
      "arine": 1894,
      "tran": 1895,
      "Ġrecher": 1896,
      "ĠGre": 1897,
      "Åĵur": 1898,
      "Ġorganise": 1899,
      "alis": 1900,
      "nage": 1901,
      "rin": 1902,
      "magne": 1903,
      "lection": 1904,
      "ĠCor": 1905,
      "Ġbon": 1906,
      "Ġand": 1907,
      "Ġsupe": 1908,
      "lor": 1909,
      "enter": 1910,
      "cipe": 1911,
      "Ġprom": 1912,
      "Ġgrandes": 1913,
      "iennent": 1914,
      "Ġallemand": 1915,
      "ah": 1916,
      "Ġnous": 1917,
      "tri": 1918,
      "sid": 1919,
      "Ġ188": 1920,
      "Ġcapit": 1921,
      "ds": 1922,
      "rom": 1923,
      "Ġservice": 1924,
      "gleterre": 1925,
      "Ġsom": 1926,
      "Ġven": 1927,
      "Ġcertaines": 1928,
      "auteur": 1929,
      "Ġ22": 1930,
      "Ġdim": 1931,
      "ĠSp": 1932,
      "abord": 1933,
      "Ġmer": 1934,
      "iller": 1935,
      "Ġmontre": 1936,
      "ik": 1937,
      "env": 1938,
      "titude": 1939,
      "Ġmuni": 1940,
      "10": 1941,
      "ĠBar": 1942,
      "sul": 1943,
      "Ġcy": 1944,
      "Ġreven": 1945,
      "ĠSh": 1946,
      "Ġcela": 1947,
      "Ġdo": 1948,
      "Ġpetit": 1949,
      "entie": 1950,
      "roche": 1951,
      "respond": 1952,
      "Ġchar": 1953,
      "auche": 1954,
      "tend": 1955,
      "ignes": 1956,
      "aye": 1957,
      "tel": 1958,
      "dustrie": 1959,
      "oise": 1960,
      "ablement": 1961,
      "Ġjoueur": 1962,
      "ork": 1963,
      "Ġactivite": 1964,
      "esp": 1965,
      "quis": 1966,
      "tenir": 1967,
      "Ġ179": 1968,
      "Ġmondiale": 1969,
      "Ġkilome": 1970,
      "Ġrev": 1971,
      "Ġ23": 1972,
      "Ġsort": 1973,
      "gage": 1974,
      "iquement": 1975,
      "Ġproprie": 1976,
      "Ġfurent": 1977,
      "Ġartis": 1978,
      "Ġentrep": 1979,
      "Ġvictoire": 1980,
      "Ġpont": 1981,
      "rentes": 1982,
      "Ê¼": 1983,
      "Ġlance": 1984,
      "Ġ24": 1985,
      "Ġparticip": 1986,
      "Ġseconde": 1987,
      "ints": 1988,
      "Ġsem": 1989,
      "ock": 1990,
      "Ġope": 1991,
      "ralement": 1992,
      "cup": 1993,
      "jo": 1994,
      "ach": 1995,
      "Ġbritann": 1996,
      "ĠBel": 1997,
      "duction": 1998,
      "sur": 1999,
      "Ġmusique": 2000,
      "orde": 2001,
      "70": 2002,
      "Ġsein": 2003,
      "gers": 2004,
      "Ġtable": 2005,
      "ĠDavid": 2006,
      "Ġcorrespond": 2007,
      "Ġstat": 2008,
      "Ġscien": 2009,
      "Ġprogra": 2010,
      "Ġserv": 2011,
      "As": 2012,
      "Ġpal": 2013,
      "aug": 2014,
      "ĠFe": 2015,
      ".-": 2016,
      "pare": 2017,
      "yd": 2018,
      "Ġdra": 2019,
      "Ġprincipalement": 2020,
      "Ġseule": 2021,
      "ĠGeor": 2022,
      "vol": 2023,
      "ĠPro": 2024,
      "Ġmoder": 2025,
      "Ġtransp": 2026,
      "Ġdirige": 2027,
      "Ġvilles": 2028,
      "avor": 2029,
      "Ġdispar": 2030,
      "lex": 2031,
      "rages": 2032,
      "ase": 2033,
      "car": 2034,
      "Ġqualif": 2035,
      "Ġcheval": 2036,
      "antin": 2037,
      "ĠII": 2038,
      "Ġ2011": 2039,
      "Ġimportante": 2040,
      "16": 2041,
      "Ġbi": 2042,
      "Ġarme": 2043,
      "Ġenfants": 2044,
      "seur": 2045,
      "Ġposte": 2046,
      "ricain": 2047,
      "irme": 2048,
      "acite": 2049,
      "Ġremporte": 2050,
      "ribue": 2051,
      "Ġmoment": 2052,
      "auv": 2053,
      "laires": 2054,
      "Ġfemmes": 2055,
      "Ġmilieu": 2056,
      "Ġclarine": 2057,
      "da": 2058,
      "Ġpropre": 2059,
      "Ġimpe": 2060,
      "Ġnationale": 2061,
      "ĠGuerre": 2062,
      "Ġapparai": 2063,
      "eff": 2064,
      "Ġmou": 2065,
      "anche": 2066,
      "igue": 2067,
      "Ġ2005": 2068,
      "Ġchampionnat": 2069,
      "Ġmunicip": 2070,
      "fa": 2071,
      "Ġsc": 2072,
      "Ġnouvelles": 2073,
      "roi": 2074,
      "Ġbomb": 2075,
      "Ġfinalement": 2076,
      "Ġsymb": 2077,
      "talie": 2078,
      "Ġbois": 2079,
      "Ġ185": 2080,
      "Ġcommunaute": 2081,
      "Ġving": 2082,
      "Ġcelles": 2083,
      "ĠLors": 2084,
      "Ġsurface": 2085,
      "ĠHor": 2086,
      "casion": 2087,
      "ootball": 2088,
      "iversite": 2089,
      "Ġnoir": 2090,
      "ĠTe": 2091,
      "Ġmari": 2092,
      "Ġ2012": 2093,
      "Ġquartier": 2094,
      "Ġlitte": 2095,
      "Ġspecta": 2096,
      "Ġcher": 2097,
      "uto": 2098,
      "Ġchev": 2099,
      "Ġchange": 2100,
      "don": 2101,
      "Ġform": 2102,
      "Ġforte": 2103,
      "Ġmate": 2104,
      "ules": 2105,
      "ald": 2106,
      "Ġcompagn": 2107,
      "Ġcine": 2108,
      "ga": 2109,
      "ess": 2110,
      "ĠPierre": 2111,
      "cif": 2112,
      "Ġdistin": 2113,
      "erre": 2114,
      "taire": 2115,
      "ĠBre": 2116,
      "pire": 2117,
      "Ġposition": 2118,
      "Ġrapidement": 2119,
      "Europe": 2120,
      "ardi": 2121,
      "Ġple": 2122,
      "Ġquand": 2123,
      "rir": 2124,
      "Ġ27": 2125,
      "Ġarch": 2126,
      "ception": 2127,
      "Ġtri": 2128,
      "Ġ28": 2129,
      "Ġentrai": 2130,
      "Ġpratique": 2131,
      "Ġcommerci": 2132,
      "ly": 2133,
      "Ġsera": 2134,
      "ki": 2135,
      "Ġremplace": 2136,
      "issent": 2137,
      "quant": 2138,
      "Ġlet": 2139,
      "Ġasse": 2140,
      "duc": 2141,
      "Ġ2000": 2142,
      "clare": 2143,
      "hi": 2144,
      "ony": 2145,
      "Ġailleurs": 2146,
      "Ġbata": 2147,
      "Ġterre": 2148,
      "este": 2149,
      "Ġpil": 2150,
      "Ġstation": 2151,
      "ribu": 2152,
      "Ġcombat": 2153,
      "ĠRobert": 2154,
      "Ġhaut": 2155,
      "posi": 2156,
      "aly": 2157,
      "Ġ(Â«": 2158,
      "util": 2159,
      "vain": 2160,
      "Ġeu": 2161,
      "Ġfonde": 2162,
      "Ġpoursu": 2163,
      "moins": 2164,
      "Ġmesure": 2165,
      "sist": 2166,
      "ora": 2167,
      "ada": 2168,
      "Ġcadre": 2169,
      "Ġforce": 2170,
      "ible": 2171,
      "nements": 2172,
      "Ġaujourd": 2173,
      "Ġmarche": 2174,
      "Ġsept": 2175,
      "Ġfavor": 2176,
      "pis": 2177,
      "ologique": 2178,
      "Ġjournal": 2179,
      "Ġdit": 2180,
      "llemagne": 2181,
      "lent": 2182,
      "Ġstru": 2183,
      "rations": 2184,
      "Ġprofessionne": 2185,
      "sus": 2186,
      "Ġtaille": 2187,
      "oser": 2188,
      "chel": 2189,
      "Ġserait": 2190,
      "Ġjoueurs": 2191,
      "issant": 2192,
      "Ġemplo": 2193,
      "ae": 2194,
      "reg": 2195,
      "Ġviol": 2196,
      "Ġtroupes": 2197,
      "15": 2198,
      "Ġexplo": 2199,
      "12": 2200,
      "Ġexpe": 2201,
      "Ġ184": 2202,
      "Ġprive": 2203,
      "icile": 2204,
      "Ġarrive": 2205,
      "Ġqualite": 2206,
      "Ġconnai": 2207,
      "off": 2208,
      "sp": 2209,
      "Ġprob": 2210,
      "iden": 2211,
      "Ġlibe": 2212,
      "Ġfigure": 2213,
      "Ġtourn": 2214,
      "ĠDu": 2215,
      "oix": 2216,
      "Ġsuff": 2217,
      "tic": 2218,
      "Ġvou": 2219,
      "Ġpossible": 2220,
      "ÌĢ-": 2221,
      "lev": 2222,
      "Ġmy": 2223,
      "tor": 2224,
      "ĠMon": 2225,
      "sant": 2226,
      "lit": 2227,
      "Ġpatri": 2228,
      "indre": 2229,
      "Ġ500": 2230,
      "ociation": 2231,
      "Ġfeu": 2232,
      "Ġaccomp": 2233,
      "Ġi": 2234,
      "fs": 2235,
      "Ġ100": 2236,
      "ĠMolie": 2237,
      "Ġresp": 2238,
      "Ġconnu": 2239,
      "Ġbr": 2240,
      "pelle": 2241,
      "ĠSch": 2242,
      "Ġanglais": 2243,
      "Ġvoyage": 2244,
      "Ġsigne": 2245,
      "Ġmilitaire": 2246,
      "Ġassez": 2247,
      "Ġst": 2248,
      "inf": 2249,
      "Ġconserve": 2250,
      "cie": 2251,
      "Ġaj": 2252,
      "ina": 2253,
      "Ġinstalle": 2254,
      "Ġpoints": 2255,
      "Ġlorsque": 2256,
      "Ġfran": 2257,
      "Ġterme": 2258,
      "uments": 2259,
      "ĠWal": 2260,
      "dam": 2261,
      "60": 2262,
      "onnes": 2263,
      "bert": 2264,
      "chille": 2265,
      "onnement": 2266,
      "Ġtermine": 2267,
      "ignement": 2268,
      "ĠXXe": 2269,
      ",,.": 2270,
      "oure": 2271,
      "Ġfore": 2272,
      "Ġvra": 2273,
      "ĠBu": 2274,
      "form": 2275,
      "Ġlangue": 2276,
      "30": 2277,
      "Ġremar": 2278,
      "aises": 2279,
      "Ġmanif": 2280,
      "Ġcritique": 2281,
      "Ġmul": 2282,
      "Ġnouveaux": 2283,
      "Ġ50": 2284,
      "Ch": 2285,
      "timent": 2286,
      "Ġprog": 2287,
      "serv": 2288,
      "alisation": 2289,
      "Ġdouble": 2290,
      "Ġdemi": 2291,
      "Ġfou": 2292,
      "ĠHar": 2293,
      "Ġphy": 2294,
      "rature": 2295,
      "Ġcomporte": 2296,
      "Ġ2003": 2297,
      "sy": 2298,
      "Ġlaisse": 2299,
      "Ġsuper": 2300,
      "Ġ1990": 2301,
      "ni": 2302,
      "Ġcourse": 2303,
      "Ġdure": 2304,
      "ati": 2305,
      "ĠPaul": 2306,
      "matique": 2307,
      "Ġprincipal": 2308,
      "...]": 2309,
      "'s": 2310,
      "Ġcrois": 2311,
      "orter": 2312,
      "olf": 2313,
      "Ġformation": 2314,
      "Ġsituation": 2315,
      "ĠPhili": 2316,
      "dit": 2317,
      "ĠPri": 2318,
      "Ġta": 2319,
      "ourge": 2320,
      "oss": 2321,
      "utes": 2322,
      "Ġlib": 2323,
      "ĠDi": 2324,
      "Ġmouvement": 2325,
      "Ġsus": 2326,
      "ĠVer": 2327,
      "dats": 2328,
      "Ġaucun": 2329,
      "dire": 2330,
      "Ġcircu": 2331,
      "Ġorigin": 2332,
      "Ġlequel": 2333,
      "Ġ978": 2334,
      "cis": 2335,
      "Ġcer": 2336,
      "Ġroute": 2337,
      "Ġmaje": 2338,
      "Åĵuvres": 2339,
      "Pour": 2340,
      "Ġaug": 2341,
      "ulie": 2342,
      "Ġact": 2343,
      "bilite": 2344,
      "ĠIer": 2345,
      "ocra": 2346,
      "Ġprendre": 2347,
      "tude": 2348,
      "Ġ2004": 2349,
      "ades": 2350,
      "Ġ1999": 2351,
      "Ġtempe": 2352,
      "publique": 2353,
      "odes": 2354,
      "Ġcli": 2355,
      "Ġvic": 2356,
      "ĠSud": 2357,
      "ĠKing": 2358,
      "ctif": 2359,
      "do": 2360,
      "raire": 2361,
      "Ġquant": 2362,
      "ustra": 2363,
      "ouvre": 2364,
      "Ġide": 2365,
      "Ġexiste": 2366,
      "ĠSta": 2367,
      "Ġ[...]": 2368,
      "Ġetc": 2369,
      "eth": 2370,
      "Ġgroupes": 2371,
      "yz": 2372,
      "ĠEvere": 2373,
      "io": 2374,
      "mig": 2375,
      "isc": 2376,
      "Ġaband": 2377,
      "Ġrespons": 2378,
      "Ġliv": 2379,
      "Ġchois": 2380,
      "Ġcoup": 2381,
      "Ġmalgre": 2382,
      "Ġvoix": 2383,
      "Ġache": 2384,
      "Ġcarrie": 2385,
      "mat": 2386,
      "Ġran": 2387,
      "Ġvoir": 2388,
      "Ġcra": 2389,
      "ĠPo": 2390,
      "Ġmettre": 2391,
      "Ġgen": 2392,
      "uellement": 2393,
      "ĠTour": 2394,
      "ĠJac": 2395,
      "Ġjuge": 2396,
      "Ġmene": 2397,
      "ographie": 2398,
      "lig": 2399,
      "Ġmajorite": 2400,
      "Ġadap": 2401,
      "13": 2402,
      "Ġhuit": 2403,
      "Ġvue": 2404,
      "tabli": 2405,
      "objet": 2406,
      "tenu": 2407,
      "Ġsucces": 2408,
      "ield": 2409,
      "aure": 2410,
      "ĠCol": 2411,
      "Ġ29": 2412,
      "Ġstudi": 2413,
      "neur": 2414,
      "estre": 2415,
      "Ġfemme": 2416,
      "Ġpetite": 2417,
      "couver": 2418,
      "Ġloge": 2419,
      "Ġord": 2420,
      "anmoins": 2421,
      "entes": 2422,
      "Ġdestine": 2423,
      "Ġ2013": 2424,
      "Ġoccupe": 2425,
      "ĠGrande": 2426,
      "Ġdyn": 2427,
      "ousse": 2428,
      "Ġchin": 2429,
      "tudes": 2430,
      "ĠPlus": 2431,
      "Ġjeux": 2432,
      "Ġpolitiques": 2433,
      "Ġfilms": 2434,
      "Ġdirec": 2435,
      "Ġsignif": 2436,
      "ige": 2437,
      "Ġbord": 2438,
      "Ġ2002": 2439,
      "gique": 2440,
      "omm": 2441,
      "Ġtourne": 2442,
      "Ġvale": 2443,
      "osent": 2444,
      "Ġae": 2445,
      "ticle": 2446,
      "rac": 2447,
      "rich": 2448,
      "Ġcolon": 2449,
      "Angleterre": 2450,
      "Ġtotal": 2451,
      "gus": 2452,
      "ox": 2453,
      "enn": 2454,
      "Ġzones": 2455,
      "conomique": 2456,
      "Ġloi": 2457,
      "Ġlimite": 2458,
      "ĠMan": 2459,
      "Ġru": 2460,
      "Ġanimaux": 2461,
      "Ġbritannique": 2462,
      "Ġvingt": 2463,
      "Apre": 2464,
      "Ġso": 2465,
      "Or": 2466,
      "ĠSur": 2467,
      "Ġderniers": 2468,
      "Ġproduit": 2469,
      "Ġsuivante": 2470,
      "14": 2471,
      "bit": 2472,
      "Ġital": 2473,
      "ĠVe": 2474,
      "Ġdirection": 2475,
      "ĠNo": 2476,
      "Ġtraditionne": 2477,
      "Ġmeur": 2478,
      "ĠOr": 2479,
      "Ġlog": 2480,
      "Ġlesque": 2481,
      "cessaire": 2482,
      "Ġmeilleur": 2483,
      "anim": 2484,
      "Ġ26": 2485,
      "uxelles": 2486,
      "sentation": 2487,
      "ĠSelon": 2488,
      "Ġpluto": 2489,
      "Ġmoitie": 2490,
      "dis": 2491,
      "aissent": 2492,
      "Ġalbum": 2493,
      "Ġvisite": 2494,
      "ilos": 2495,
      "Ġble": 2496,
      "Ġproche": 2497,
      "tisme": 2498,
      "fini": 2499,
      "Ġsyn": 2500,
      "Ġannonce": 2501,
      "Ġaucune": 2502,
      "Ġtent": 2503,
      "ress": 2504,
      "mentation": 2505,
      "ĠChe": 2506,
      "Ġ180": 2507,
      "ave": 2508,
      "ĠSu": 2509,
      "oile": 2510,
      "main": 2511,
      "Ġfaible": 2512,
      "asi": 2513,
      "archite": 2514,
      "Ġpassage": 2515,
      "Ġtombe": 2516,
      "Ġsuivant": 2517,
      "Ġtoutefois": 2518,
      "ressi": 2519,
      "tifie": 2520,
      "oul": 2521,
      "Ġgauche": 2522,
      "Ġproce": 2523,
      "ximite": 2524,
      "Ġproximite": 2525,
      "Ġpeuple": 2526,
      "olymp": 2527,
      "cons": 2528,
      "Ġregrou": 2529,
      "ologiques": 2530,
      "crits": 2531,
      "Ġfaisant": 2532,
      "mique": 2533,
      "uels": 2534,
      "occasion": 2535,
      "mente": 2536,
      "album": 2537,
      "Ġtels": 2538,
      "Ġaccep": 2539,
      "Ġlorsqu": 2540,
      "Je": 2541,
      "Ġmi": 2542,
      "cier": 2543,
      "Ġtota": 2544,
      "duis": 2545,
      "ville": 2546,
      "ĠJapon": 2547,
      "ĠYork": 2548,
      "Ġcomte": 2549,
      "Ġolymp": 2550,
      "Ġ2001": 2551,
      "Ġchanson": 2552,
      "Ġchevaux": 2553,
      "vision": 2554,
      "Ġfootball": 2555,
      "ĠAs": 2556,
      "Ġsortie": 2557,
      "pel": 2558,
      "ica": 2559,
      "naire": 2560,
      "ĠÅĵuvre": 2561,
      "tir": 2562,
      "gulie": 2563,
      "otes": 2564,
      "arre": 2565,
      "tenant": 2566,
      "ĠPra": 2567,
      "apit": 2568,
      "Ġ40": 2569,
      "ache": 2570,
      "Ġparticipe": 2571,
      "registre": 2572,
      "xim": 2573,
      "ension": 2574,
      "dec": 2575,
      "ĠMartin": 2576,
      "Ġeffectue": 2577,
      "liers": 2578,
      "ager": 2579,
      "Ġsujet": 2580,
      "atta": 2581,
      "Ġchac": 2582,
      "Ġnume": 2583,
      "Ġnavires": 2584,
      "cteurs": 2585,
      "sorm": 2586,
      "Ġviv": 2587,
      "rences": 2588,
      "Ġsource": 2589,
      "sormais": 2590,
      "bourg": 2591,
      "Ġpresque": 2592,
      "Aut": 2593,
      "fense": 2594,
      "ĠDon": 2595,
      "Ġhomme": 2596,
      "sentant": 2597,
      "Ġestime": 2598,
      "Une": 2599,
      "ian": 2600,
      "uge": 2601,
      "Ġvend": 2602,
      "ell": 2603,
      "Ġprincipaux": 2604,
      "40": 2605,
      "Ġvide": 2606,
      "Ġarre": 2607,
      "Ġmulti": 2608,
      "Ġhistorique": 2609,
      "ĠCanada": 2610,
      "Ġsim": 2611,
      "outefois": 2612,
      "Ġatteint": 2613,
      "pt": 2614,
      "Ġinde": 2615,
      "ĠEd": 2616,
      "tire": 2617,
      "aisse": 2618,
      "Ġjapon": 2619,
      "no": 2620,
      "urg": 2621,
      "ali": 2622,
      "Ġconsacre": 2623,
      "air": 2624,
      "aix": 2625,
      "Ġpren": 2626,
      "ĠSec": 2627,
      "ĠÅĵuvres": 2628,
      "Ġtaux": 2629,
      "Ġoutre": 2630,
      "Ġlut": 2631,
      "aliste": 2632,
      "appar": 2633,
      "lot": 2634,
      "Ġscientif": 2635,
      "faite": 2636,
      "empereur": 2637,
      "Ġloin": 2638,
      "osse": 2639,
      "ĠFre": 2640,
      "ico": 2641,
      "ĠLu": 2642,
      "Ġbre": 2643,
      "pect": 2644,
      "Ġchasse": 2645,
      "Ġassure": 2646,
      "Ġdomin": 2647,
      "Ġbataille": 2648,
      "Ġretra": 2649,
      "Ġvain": 2650,
      "Ġiniti": 2651,
      "ĠJose": 2652,
      "tention": 2653,
      "Ġheures": 2654,
      "Ġproduits": 2655,
      "Ġgrec": 2656,
      "Ġ!": 2657,
      "Ġfle": 2658,
      "rist": 2659,
      "usion": 2660,
      "Ġadminist": 2661,
      ".,": 2662,
      "ficie": 2663,
      "homme": 2664,
      "Ġcentra": 2665,
      "orth": 2666,
      "anger": 2667,
      "illiam": 2668,
      "Ġsoi": 2669,
      "rup": 2670,
      "Ġcampagne": 2671,
      "Par": 2672,
      "isant": 2673,
      "ash": 2674,
      "Ġcoll": 2675,
      "enseignement": 2676,
      "Ġrecherche": 2677,
      "ek": 2678,
      "ura": 2679,
      "Ġfaut": 2680,
      "Ġprot": 2681,
      "Ġcomprend": 2682,
      "ĠBruxelles": 2683,
      "ity": 2684,
      "Ġterrain": 2685,
      "mission": 2686,
      "ĠLond": 2687,
      "aude": 2688,
      "Ġprovin": 2689,
      "Ġtend": 2690,
      "ortail": 2691,
      "ĠSm": 2692,
      "Ġconstruit": 2693,
      "Ġrouge": 2694,
      "col": 2695,
      "Ġurb": 2696,
      "enf": 2697,
      "Ġbes": 2698,
      "ĠGal": 2699,
      "Ġillus": 2700,
      "Ġmodif": 2701,
      "Ġprise": 2702,
      "Ġentie": 2703,
      "Ġbov": 2704,
      "atoire": 2705,
      "dia": 2706,
      "othe": 2707,
      "vention": 2708,
      "Ġcoule": 2709,
      "Ġquelque": 2710,
      "ailleurs": 2711,
      "cor": 2712,
      "Ġperd": 2713,
      "Ġenfin": 2714,
      "Ġbal": 2715,
      "Ġcapacite": 2716,
      "Ġvalle": 2717,
      "ĠCo": 2718,
      "ouverture": 2719,
      "200": 2720,
      "Ġdisc": 2721,
      "Ġdispose": 2722,
      "by": 2723,
      "cision": 2724,
      "rendre": 2725,
      "ĠAme": 2726,
      "Ġdomaine": 2727,
      "Ġmatchs": 2728,
      "Ġ1998": 2729,
      "ĠĠ": 2730,
      "lections": 2731,
      "illon": 2732,
      "Ġmanque": 2733,
      "Ġdiffic": 2734,
      "Ġprogramme": 2735,
      "sage": 2736,
      "explo": 2737,
      "Ġdoivent": 2738,
      "ĠNouve": 2739,
      "avoir": 2740,
      "Ġclarinette": 2741,
      "Åĵuf": 2742,
      "Ġprix": 2743,
      "cription": 2744,
      "Ġdonn": 2745,
      "Ġinterpre": 2746,
      "52": 2747,
      "ĠEurope": 2748,
      "Ġho": 2749,
      "ames": 2750,
      "Ġreprend": 2751,
      "Ġphilos": 2752,
      "moine": 2753,
      "Ġconseil": 2754,
      "Ġend": 2755,
      "Ġcommande": 2756,
      "ĠPhilippe": 2757,
      "habit": 2758,
      "signe": 2759,
      "Ġpourrait": 2760,
      "ĠFin": 2761,
      "ainte": 2762,
      "ĠNor": 2763,
      "Ġcontemp": 2764,
      "ricains": 2765,
      "ĠEnfin": 2766,
      "ĠDeux": 2767,
      "Ġinspire": 2768,
      "Ġsecteur": 2769,
      "Ġmoyen": 2770,
      "Ġchai": 2771,
      "oye": 2772,
      "Ġsport": 2773,
      "Ġferme": 2774,
      "tise": 2775,
      "Ġvoie": 2776,
      "iction": 2777,
      "Ġ187": 2778,
      "ĠRich": 2779,
      "Ġrecons": 2780,
      "Ġimme": 2781,
      "cit": 2782,
      "raux": 2783,
      "lige": 2784,
      "tiste": 2785,
      "Ġvillage": 2786,
      "rae": 2787,
      "Ġpermettent": 2788,
      "Ġvarie": 2789,
      "truction": 2790,
      "ographique": 2791,
      "esse": 2792,
      "Ġquestion": 2793,
      "ĠBon": 2794,
      "cy": 2795,
      "Ġlim": 2796,
      "Ġradi": 2797,
      "Italie": 2798,
      "gyp": 2799,
      "ast": 2800,
      "ĠQue": 2801,
      "orn": 2802,
      "ibli": 2803,
      "monte": 2804,
      "ĠComp": 2805,
      "Ġsecre": 2806,
      "Ġ1970": 2807,
      "sych": 2808,
      "ulture": 2809,
      "enson": 2810,
      "sentent": 2811,
      "aces": 2812,
      "duire": 2813,
      "Ġnote": 2814,
      "Ġsalle": 2815,
      "Ġvu": 2816,
      "Ġpermettant": 2817,
      "onte": 2818,
      "arite": 2819,
      "Ġnour": 2820,
      "dique": 2821,
      "ĠXVIIIe": 2822,
      "cal": 2823,
      "Ġiden": 2824,
      "espe": 2825,
      "ĠJeux": 2826,
      "Ġgrav": 2827,
      "Ġpetits": 2828,
      "ĠLondres": 2829,
      "Ġinfluence": 2830,
      "Ġsimple": 2831,
      "nis": 2832,
      "ypo": 2833,
      "Ġliste": 2834,
      "Ġlieux": 2835,
      "oun": 2836,
      "athol": 2837,
      "Jean": 2838,
      "Ġsenti": 2839,
      "import": 2840,
      "Ġdroits": 2841,
      "ative": 2842,
      "lis": 2843,
      "Ġ1980": 2844,
      "Ġdroite": 2845,
      "Ġtexte": 2846,
      "80": 2847,
      "Ġautant": 2848,
      "men": 2849,
      "non": 2850,
      "rat": 2851,
      "Ġbyz": 2852,
      "opte": 2853,
      "tisse": 2854,
      "Ġblanc": 2855,
      "organisation": 2856,
      "sibilite": 2857,
      "Ġgros": 2858,
      "ricaine": 2859,
      "Ġpresse": 2860,
      "tice": 2861,
      "quence": 2862,
      "Ġcome": 2863,
      "riel": 2864,
      "assin": 2865,
      "Ġcav": 2866,
      "Ġengage": 2867,
      "Ġtrib": 2868,
      "mbla": 2869,
      "Ġ60": 2870,
      "Ġlivres": 2871,
      "Ou": 2872,
      "bes": 2873,
      "Ġpense": 2874,
      "Ġcanadi": 2875,
      "25": 2876,
      "Ġlargement": 2877,
      "Ġcontempor": 2878,
      "rs": 2879,
      "Ġfille": 2880,
      "Ġbonne": 2881,
      "Ġpopulaire": 2882,
      "Ġinfe": 2883,
      "Ġenvir": 2884,
      "arrive": 2885,
      "unk": 2886,
      "Ġpartis": 2887,
      "gions": 2888,
      "US": 2889,
      "alog": 2890,
      "ĠMo": 2891,
      "cience": 2892,
      "Ġchemin": 2893,
      "lande": 2894,
      "Ìģ-": 2895,
      "Ġ2014": 2896,
      "Ġdirectement": 2897,
      "Ġdeme": 2898,
      "ancien": 2899,
      "ĠCerta": 2900,
      "aiss": 2901,
      "ĠIV": 2902,
      "Allemagne": 2903,
      "bres": 2904,
      "Ġ?": 2905,
      "Ġali": 2906,
      "Ġprobablement": 2907,
      "ka": 2908,
      "uros": 2909,
      "Ġconditions": 2910,
      "Ġinv": 2911,
      "irs": 2912,
      "Ġcommen": 2913,
      "dessus": 2914,
      "roule": 2915,
      "Ġress": 2916,
      "Ġpat": 2917,
      "Ġmieux": 2918,
      "Ġensemble": 2919,
      "Ġaupre": 2920,
      "ĠPa": 2921,
      "ĠToutefois": 2922,
      "ĠChampagne": 2923,
      "vid": 2924,
      "gime": 2925,
      "Ġlibre": 2926,
      "yer": 2927,
      "Ġdoute": 2928,
      "lesse": 2929,
      "199": 2930,
      "Ġcompagnie": 2931,
      "Ġparce": 2932,
      "ĠFer": 2933,
      "ĠWar": 2934,
      "Ġprofonde": 2935,
      "Ġtemple": 2936,
      "Ġfranch": 2937,
      "eux": 2938,
      "fait": 2939,
      "pi": 2940,
      "plo": 2941,
      "Ġsaint": 2942,
      "rable": 2943,
      "Ġrece": 2944,
      "lova": 2945,
      "Ġtue": 2946,
      "ĠLi": 2947,
      "Ġtableau": 2948,
      "Ġstra": 2949,
      "Ġbru": 2950,
      "ĠSam": 2951,
      "ĠPer": 2952,
      "att": 2953,
      "rance": 2954,
      "terne": 2955,
      "Ġconten": 2956,
      "cule": 2957,
      "Ġscul": 2958,
      "anti": 2959,
      "Ġ1960": 2960,
      "ords": 2961,
      "22": 2962,
      "cise": 2963,
      "lire": 2964,
      "tr": 2965,
      "ana": 2966,
      "Ġfu": 2967,
      "Ġdesc": 2968,
      "Ġavaient": 2969,
      "onneur": 2970,
      "ĠMarc": 2971,
      "Ġcommerce": 2972,
      "onge": 2973,
      "chant": 2974,
      "Ġchoix": 2975,
      "Ġras": 2976,
      "ks": 2977,
      "sie": 2978,
      "erte": 2979,
      "ardin": 2980,
      "public": 2981,
      "dy": 2982,
      "Ġpein": 2983,
      "ĠWilliam": 2984,
      "Ġrespec": 2985,
      "Ġphase": 2986,
      "Ġancienne": 2987,
      "Ġcapitale": 2988,
      "11": 2989,
      "oce": 2990,
      "Ġly": 2991,
      "Ġait": 2992,
      "Ġvous": 2993,
      "abilite": 2994,
      "oyen": 2995,
      "Ġinstru": 2996,
      "formation": 2997,
      "Ġministre": 2998,
      "entiel": 2999,
      "Ġanciens": 3000,
      "Ġ1994": 3001,
      "landais": 3002,
      "joint": 3003,
      "ax": 3004,
      "Ġrenfor": 3005,
      "Ġcontraire": 3006,
      "coles": 3007,
      "tienne": 3008,
      "Ġforces": 3009,
      "ĠXII": 3010,
      "Ġrivie": 3011,
      "Ġdocument": 3012,
      "environ": 3013,
      "Evere": 3014,
      "ola": 3015,
      "Ġpsych": 3016,
      "Ġvites": 3017,
      "Ġrecense": 3018,
      "Ġautor": 3019,
      "entiellement": 3020,
      "Ġstructure": 3021,
      "Ġvois": 3022,
      "Ġmot": 3023,
      "exist": 3024,
      "quipes": 3025,
      "Ġsoldats": 3026,
      "FA": 3027,
      "pute": 3028,
      "Ġcathol": 3029,
      "tim": 3030,
      "Ġflo": 3031,
      "Ġminutes": 3032,
      "Ġlignes": 3033,
      "ara": 3034,
      "positions": 3035,
      "loc": 3036,
      "Ġquo": 3037,
      "ĠRome": 3038,
      "Ġstade": 3039,
      "Ġpropos": 3040,
      "tements": 3041,
      "labor": 3042,
      "aide": 3043,
      "Ġpeint": 3044,
      "ctures": 3045,
      "ĠStev": 3046,
      "universite": 3047,
      "Ġindustrie": 3048,
      "ĠDepuis": 3049,
      "moign": 3050,
      "Ġnuit": 3051,
      "Ġdessine": 3052,
      "ht": 3053,
      "Ġsais": 3054,
      "Ġarche": 3055,
      "Ġexplique": 3056,
      "Ġhistoriques": 3057,
      "Ġpalais": 3058,
      "Ġabandonne": 3059,
      "gn": 3060,
      "Ġrepro": 3061,
      "Ġ80": 3062,
      "Ġrele": 3063,
      "ictor": 3064,
      "sultats": 3065,
      "26": 3066,
      "ĠFor": 3067,
      "ambi": 3068,
      "Ġaccompagne": 3069,
      "Is": 3070,
      "aj": 3071,
      "isent": 3072,
      "Ġrelie": 3073,
      "occup": 3074,
      "tival": 3075,
      "Ġjourne": 3076,
      "Ġvolcan": 3077,
      "ĠHenri": 3078,
      "oux": 3079,
      "Ġtente": 3080,
      "Ġdiver": 3081,
      "Ġdiverses": 3082,
      "ĠJacques": 3083,
      "ĠStevenson": 3084,
      "Mar": 3085,
      "Ġfes": 3086,
      "agnes": 3087,
      "Ġpatrimoine": 3088,
      "29": 3089,
      "yon": 3090,
      "oma": 3091,
      "Ġvit": 3092,
      "riques": 3093,
      "Ġproven": 3094,
      "'Â«": 3095,
      "mentaires": 3096,
      "ĠLigue": 3097,
      "Ġvari": 3098,
      "Ġauteurs": 3099,
      "apar": 3100,
      "Ġtermin": 3101,
      "Ġpose": 3102,
      "Ġbuts": 3103,
      "Ġcherche": 3104,
      "Ġmanifest": 3105,
      "ypothe": 3106,
      "pla": 3107,
      "tian": 3108,
      "Ġvia": 3109,
      "Ġparties": 3110,
      "Ġchre": 3111,
      "ĠJus": 3112,
      "Ġrace": 3113,
      "longe": 3114,
      "terie": 3115,
      "Ġ31": 3116,
      "ĠParmi": 3117,
      "Ġobjets": 3118,
      "ĠChamb": 3119,
      "alyse": 3120,
      "rif": 3121,
      "Ġ%,": 3122,
      "Ġlocaux": 3123,
      "Ġreligie": 3124,
      "timents": 3125,
      "Ġgar": 3126,
      "ĠBien": 3127,
      "Ġchan": 3128,
      "ications": 3129,
      "andes": 3130,
      "Ġacce": 3131,
      "Ġmilitaires": 3132,
      "Ġouvert": 3133,
      "Ġsommet": 3134,
      "ata": 3135,
      "Ġdat": 3136,
      "itant": 3137,
      "ĠCre": 3138,
      "ĠRen": 3139,
      "ĠGra": 3140,
      "Ġtrouvent": 3141,
      "lanc": 3142,
      "Ġarchite": 3143,
      "prise": 3144,
      "ĠSal": 3145,
      "ĠAd": 3146,
      "Ġmatie": 3147,
      "Ġfau": 3148,
      "Ġense": 3149,
      "raient": 3150,
      "Ġvient": 3151,
      "old": 3152,
      "Ġgl": 3153,
      "unis": 3154,
      "Ġouver": 3155,
      "Ġ35": 3156,
      "Ġlongtemps": 3157,
      "Ġcritiques": 3158,
      "Ġmassif": 3159,
      "ĠMichel": 3160,
      "ĠSer": 3161,
      "ĠGar": 3162,
      "Ġtient": 3163,
      "Ġsites": 3164,
      "Ġprincipales": 3165,
      "ĠHenry": 3166,
      "Ġfourn": 3167,
      "Ġamp": 3168,
      "veur": 3169,
      "Ġvote": 3170,
      "tagne": 3171,
      "Ġrien": 3172,
      "Ġphe": 3173,
      "ranche": 3174,
      "duite": 3175,
      "Ġobtient": 3176,
      "titution": 3177,
      "Ġcertain": 3178,
      "ibles": 3179,
      "Ġcentrale": 3180,
      "Ġcate": 3181,
      "aliser": 3182,
      "sents": 3183,
      "Ġroyaume": 3184,
      "Ġmultip": 3185,
      "xes": 3186,
      "Ġdonner": 3187,
      "ĠcÅĵur": 3188,
      "ĠCour": 3189,
      "ĠRom": 3190,
      "ĠJu": 3191,
      "titule": 3192,
      "pin": 3193,
      "zz": 3194,
      "ague": 3195,
      "abb": 3196,
      "Ġprincipale": 3197,
      "Ġdifficile": 3198,
      "riers": 3199,
      "Ġmaisons": 3200,
      "ociations": 3201,
      "Ġcandi": 3202,
      "sistance": 3203,
      "Lors": 3204,
      "bonne": 3205,
      "ood": 3206,
      "ĠAndre": 3207,
      "Ġautorite": 3208,
      "Ġrelations": 3209,
      "Ġmission": 3210,
      "esti": 3211,
      "Ġamb": 3212,
      "Ġtro": 3213,
      "Ġpuisque": 3214,
      "Ġsoutien": 3215,
      "ixe": 3216,
      "Ġtournoi": 3217,
      "eng": 3218,
      "Ġpublique": 3219,
      "Ġassocie": 3220,
      "Ġpou": 3221,
      "rien": 3222,
      "Ġmembre": 3223,
      "Ġtrouver": 3224,
      "Ġpermis": 3225,
      "Ġtechniques": 3226,
      "Ġemploye": 3227,
      "nome": 3228,
      "Ġparois": 3229,
      "Ġoccident": 3230,
      "imetie": 3231,
      "Ġphilosoph": 3232,
      "Ġdieu": 3233,
      "Ġtel": 3234,
      "Ġconflit": 3235,
      "Ġeffec": 3236,
      "Ġqualifie": 3237,
      "Ġfab": 3238,
      "ĠPays": 3239,
      "ĠHer": 3240,
      "obil": 3241,
      "Ġtraverse": 3242,
      "Ġculte": 3243,
      "iff": 3244,
      "ises": 3245,
      "spagne": 3246,
      "argent": 3247,
      "ĠElles": 3248,
      "ĠVII": 3249,
      "ĠPort": 3250,
      "Ġpuissance": 3251,
      "thi": 3252,
      "Ġmanus": 3253,
      "Ġattribue": 3254,
      "Ġbombarde": 3255,
      "Ame": 3256,
      "gieux": 3257,
      "Ġfron": 3258,
      "ĠRose": 3259,
      "Ġexpose": 3260,
      "oth": 3261,
      "Ġderrie": 3262,
      "Ġquatrie": 3263,
      "Ġlettre": 3264,
      "fort": 3265,
      "ĠStra": 3266,
      "ritable": 3267,
      "bec": 3268,
      "issements": 3269,
      "tta": 3270,
      "uil": 3271,
      "Ġmine": 3272,
      "Ġval": 3273,
      "Ġarticle": 3274,
      "ĠRichard": 3275,
      "Ġhistoire": 3276,
      "Ġsources": 3277,
      "ĠSeconde": 3278,
      "pit": 3279,
      "inc": 3280,
      "omas": 3281,
      "Ġintitule": 3282,
      "activite": 3283,
      "Ġ1950": 3284,
      "ham": 3285,
      "sil": 3286,
      "Ġiss": 3287,
      "ĠSan": 3288,
      "ĠBou": 3289,
      "Ġrendre": 3290,
      "usement": 3291,
      "ovie": 3292,
      "Ġfigures": 3293,
      "Ġaccueille": 3294,
      "pouse": 3295,
      "Ġemb": 3296,
      "Ġgale": 3297,
      "Ġclassement": 3298,
      "36": 3299,
      "line": 3300,
      "run": 3301,
      "Ġsco": 3302,
      "Ġnaissance": 3303,
      "rig": 3304,
      "Ġnavire": 3305,
      "Ġtechnique": 3306,
      "curite": 3307,
      "Ġcat": 3308,
      "roix": 3309,
      "Cette": 3310,
      "Ġsimil": 3311,
      "mier": 3312,
      "Ġcimetie": 3313,
      "Ġquitte": 3314,
      "Ġtitres": 3315,
      "Ġdivision": 3316,
      "Ġroyale": 3317,
      "NL": 3318,
      "dou": 3319,
      "mor": 3320,
      "Ġpierre": 3321,
      "ĠAvec": 3322,
      "ĠWe": 3323,
      "ĠXVIIe": 3324,
      "Ġmonuments": 3325,
      "Ġ45": 3326,
      "ulaire": 3327,
      "Ġcollection": 3328,
      "ua": 3329,
      "Ġbande": 3330,
      "Ġgla": 3331,
      "Ġguer": 3332,
      "Ġfortement": 3333,
      "Ġrock": 3334,
      "Ġmajor": 3335,
      "ĠGeorge": 3336,
      "Ġsoient": 3337,
      "ĠSes": 3338,
      "image": 3339,
      "Ġmarch": 3340,
      "Ġpopulations": 3341,
      "Ġpied": 3342,
      "azine": 3343,
      "Ġindique": 3344,
      "tablissement": 3345,
      "fre": 3346,
      "ĠTro": 3347,
      "ĠHorus": 3348,
      "ĠPortail": 3349,
      "tern": 3350,
      "ĠNi": 3351,
      "Ġrac": 3352,
      "Ġ1997": 3353,
      "Ġmorts": 3354,
      "Ġ1930": 3355,
      "Ġstatue": 3356,
      "Ġenregistre": 3357,
      "Ġparvient": 3358,
      "ĠCet": 3359,
      "ult": 3360,
      "renant": 3361,
      "ario": 3362,
      "Ġsymbol": 3363,
      "Ġadministra": 3364,
      "bo": 3365,
      "place": 3366,
      "cha": 3367,
      "umie": 3368,
      "oleil": 3369,
      "Ġgenre": 3370,
      "Ġlit": 3371,
      "join": 3372,
      "ling": 3373,
      "vre": 3374,
      "Ġempe": 3375,
      "Ġneuf": 3376,
      "Ġriches": 3377,
      "Ġcertaine": 3378,
      "gon": 3379,
      "ĠMaur": 3380,
      "Ġpropor": 3381,
      "Ġstrate": 3382,
      "cad": 3383,
      "ensi": 3384,
      "Ġlac": 3385,
      "ĠAchille": 3386,
      "Ġposi": 3387,
      "Ġsouff": 3388,
      "quip": 3389,
      "Ġstatut": 3390,
      "Ġdynas": 3391,
      "Ġcant": 3392,
      "Ġconcep": 3393,
      "ĠMer": 3394,
      "couverte": 3395,
      "Ġvaleur": 3396,
      "Ġvoire": 3397,
      "Ġclassique": 3398,
      "hum": 3399,
      "mm": 3400,
      "Ġtire": 3401,
      "Ġmalta": 3402,
      "Ġmusic": 3403,
      "Ġsemaines": 3404,
      "Ġservices": 3405,
      "Ġajoute": 3406,
      "aie": 3407,
      "mage": 3408,
      "ini": 3409,
      "mentaire": 3410,
      "olle": 3411,
      "Ġsocial": 3412,
      "thiop": 3413,
      "Ġnor": 3414,
      "riche": 3415,
      "ĠNation": 3416,
      "Ġextra": 3417,
      "ĠPrague": 3418,
      "gis": 3419,
      "ize": 3420,
      "Ġunique": 3421,
      "ĠBo": 3422,
      "Ġexe": 3423,
      "ducation": 3424,
      "Ġdifficulte": 3425,
      "fic": 3426,
      "Ġâ": 3427,
      "Ġpap": 3428,
      "Ġexist": 3429,
      "ĠKos": 3430,
      "Ġcontrat": 3431,
      "Ġrevanche": 3432,
      "Pierre": 3433,
      "Ġcompar": 3434,
      "Ġcomplexe": 3435,
      "Ġsociale": 3436,
      "Ġconcerne": 3437,
      "Ġstudio": 3438,
      "Ġpaix": 3439,
      "Ġhaute": 3440,
      "ristian": 3441,
      "ancienne": 3442,
      "Ġbovins": 3443,
      "84": 3444,
      "Ġgarde": 3445,
      "Ġhors": 3446,
      "uifs": 3447,
      "Ġ300": 3448,
      "Ġsouha": 3449,
      "ĠFrancis": 3450,
      "Ġrefuse": 3451,
      "ribution": 3452,
      "Ġfrontie": 3453,
      "Ġami": 3454,
      "Ġmasse": 3455,
      "ĠBra": 3456,
      "ĠÂ»)": 3457,
      "Ġextre": 3458,
      "Ġrais": 3459,
      "Ġmontagne": 3460,
      "Ġconcernant": 3461,
      "Ġrang": 3462,
      "xte": 3463,
      "Ġcit": 3464,
      "Ġgestion": 3465,
      "ĠBambi": 3466,
      "ĠTom": 3467,
      "ĠTra": 3468,
      "Ġmoteur": 3469,
      "Ġreprises": 3470,
      "crite": 3471,
      "ussie": 3472,
      "ÌĦ": 3473,
      "Ġfus": 3474,
      "Ġmonument": 3475,
      "Ġdispute": 3476,
      "Re": 3477,
      "ides": 3478,
      "lut": 3479,
      "vise": 3480,
      "chent": 3481,
      "Ġgare": 3482,
      "ĠAng": 3483,
      "Ġcourant": 3484,
      "ky": 3485,
      "Ġoffre": 3486,
      "Ġessentiellement": 3487,
      "Ġvitesse": 3488,
      "nard": 3489,
      "Ġcop": 3490,
      "expe": 3491,
      "Ġmoderne": 3492,
      "Ġliberte": 3493,
      "Ġbel": 3494,
      "ĠTur": 3495,
      "Ġrelativement": 3496,
      "Ġregroupe": 3497,
      "mise": 3498,
      "Ġsomme": 3499,
      "ĠPNL": 3500,
      "osant": 3501,
      "Ġmonte": 3502,
      "oyer": 3503,
      "Ġ2017": 3504,
      "itt": 3505,
      "ĠComme": 3506,
      "ĠPal": 3507,
      "ĠAlex": 3508,
      "Ġ1945": 3509,
      "Ġcentral": 3510,
      "Ġissu": 3511,
      "Ġentreprises": 3512,
      "ĠPrix": 3513,
      "Ġsouhaite": 3514,
      "Ġdoll": 3515,
      "acce": 3516,
      "nergie": 3517,
      "Ġattaque": 3518,
      "89": 3519,
      "sor": 3520,
      "tile": 3521,
      "ĠCel": 3522,
      "Ġmaxim": 3523,
      "Ġ1940": 3524,
      "ĠAugus": 3525,
      "clar": 3526,
      "tionnelle": 3527,
      "uri": 3528,
      "Ġfront": 3529,
      "Ġunivers": 3530,
      "abe": 3531,
      "Ġmots": 3532,
      "crire": 3533,
      "Ġrappe": 3534,
      "rus": 3535,
      "Ġrares": 3536,
      "Ġpasser": 3537,
      "Ġexc": 3538,
      "Ġcontinue": 3539,
      "ĠÃ": 3540,
      "uration": 3541,
      "Ġterres": 3542,
      "Ġveut": 3543,
      "Ġlire": 3544,
      "Ġgagne": 3545,
      "irent": 3546,
      "Ġris": 3547,
      "Ġnouvel": 3548,
      "gile": 3549,
      "ĠThomas": 3550,
      "Ġaccepte": 3551,
      "ym": 3552,
      "Ġlois": 3553,
      "Ġmauv": 3554,
      "Depuis": 3555,
      "Ġprotection": 3556,
      "ĠMalgre": 3557,
      "influence": 3558,
      "Ġmeurt": 3559,
      "pital": 3560,
      "ĠBen": 3561,
      "Ġha": 3562,
      "ĠTou": 3563,
      "Ġsavoir": 3564,
      "ĠOs": 3565,
      "Ġriche": 3566,
      "Ġconnue": 3567,
      "ĠRoyal": 3568,
      "Ġcroise": 3569,
      "Ġjouer": 3570,
      "pisode": 3571,
      "Ġphysique": 3572,
      "Ġchacun": 3573,
      "90": 3574,
      "Ġaffe": 3575,
      "Ġsang": 3576,
      "tations": 3577,
      "table": 3578,
      "Ġgue": 3579,
      "Ġanti": 3580,
      "Ġcommunal": 3581,
      "Ġpetites": 3582,
      "Ġlongueur": 3583,
      "histor": 3584,
      "Ġlatin": 3585,
      "Ġintro": 3586,
      "minem": 3587,
      "Ġtextes": 3588,
      "utilisation": 3589,
      "iner": 3590,
      "Ġnos": 3591,
      "Ġpucer": 3592,
      "Ġinternational": 3593,
      "onyme": 3594,
      "ĠDonald": 3595,
      "37": 3596,
      "pu": 3597,
      "ĠlÊ¼": 3598,
      "Ġcm": 3599,
      "ties": 3600,
      "oses": 3601,
      "Ġsug": 3602,
      "Ġsculp": 3603,
      "existence": 3604,
      "Ġdollars": 3605,
      "gor": 3606,
      "lois": 3607,
      "Ġsorte": 3608,
      "let": 3609,
      "ĠMc": 3610,
      "ĠDick": 3611,
      "ĠTre": 3612,
      "Ġ400": 3613,
      "pendance": 3614,
      "ĠClub": 3615,
      "espace": 3616,
      "Ġlutte": 3617,
      "75": 3618,
      "Ġcondam": 3619,
      "ĠMag": 3620,
      "Ġcompris": 3621,
      "Ġallemande": 3622,
      "Ġanciennes": 3623,
      "ĠConst": 3624,
      "Ġlogements": 3625,
      "emb": 3626,
      "ld": 3627,
      "Ġdemand": 3628,
      "ourne": 3629,
      "Ġban": 3630,
      "Ġorient": 3631,
      "Ġprofit": 3632,
      "marck": 3633,
      "Ġconfe": 3634,
      "ĠBis": 3635,
      "Ġarri": 3636,
      "bar": 3637,
      "asc": 3638,
      "ĠMoyen": 3639,
      "ĠVir": 3640,
      "Ġ1996": 3641,
      "Ġobserve": 3642,
      "ĠâĢĵ": 3643,
      "Ġtransport": 3644,
      "aw": 3645,
      "yth": 3646,
      "ĠJoseph": 3647,
      "bel": 3648,
      "Ġformes": 3649,
      "ĠMars": 3650,
      "Ġsuivi": 3651,
      "Ġvolonte": 3652,
      "Ġdevenir": 3653,
      "Ġsemaine": 3654,
      "35": 3655,
      "Ġconduit": 3656,
      "rand": 3657,
      "termin": 3658,
      "iennes": 3659,
      "Ġpuiss": 3660,
      "Ġsupple": 3661,
      "Ġprolonge": 3662,
      "Ġhauteur": 3663,
      "Ġquartiers": 3664,
      "nom": 3665,
      "inde": 3666,
      "ĠLo": 3667,
      "uelles": 3668,
      "Ġ2016": 3669,
      "Ġpolice": 3670,
      "Ġcanal": 3671,
      "Ġvillages": 3672,
      "iant": 3673,
      "Ġsing": 3674,
      "olk": 3675,
      "Ġconver": 3676,
      "oger": 3677,
      "Ġfrancs": 3678,
      "ĠRoyaume": 3679,
      "honneur": 3680,
      "oration": 3681,
      "ĠChine": 3682,
      "Ġ2018": 3683,
      "Ġlocale": 3684,
      "viennent": 3685,
      "Ġmille": 3686,
      "siris": 3687,
      "ueil": 3688,
      "ĠJack": 3689,
      "rieures": 3690,
      "Ġcommand": 3691,
      "paration": 3692,
      "Ġpossibilite": 3693,
      "Ġ1944": 3694,
      "Ġlocales": 3695,
      "monie": 3696,
      "27": 3697,
      "lante": 3698,
      "ino": 3699,
      "ĠMuse": 3700,
      "ĠVictor": 3701,
      "Ġtermes": 3702,
      "Ġcollabor": 3703,
      "matiques": 3704,
      "Ġaccueilli": 3705,
      "Ġprotest": 3706,
      "ibliothe": 3707,
      "comp": 3708,
      "frique": 3709,
      "ms": 3710,
      "Ġparle": 3711,
      "Ġvolu": 3712,
      "Ġhau": 3713,
      "Ġimportantes": 3714,
      "Ġvoies": 3715,
      "ĠNouvelle": 3716,
      "65": 3717,
      "Est": 3718,
      "viter": 3719,
      "ination": 3720,
      "Ġtche": 3721,
      "Ġpartage": 3722,
      "Ġnob": 3723,
      "Ġbras": 3724,
      "Ġpermettre": 3725,
      "Ġterritoires": 3726,
      "gation": 3727,
      "times": 3728,
      "Ġdiscours": 3729,
      "abbaye": 3730,
      "24": 3731,
      "Ġsante": 3732,
      "ĠVal": 3733,
      "Ġrefus": 3734,
      "Ġdote": 3735,
      "ĠdÊ¼": 3736,
      "Ġcoupe": 3737,
      "levage": 3738,
      "architecture": 3739,
      "Plus": 3740,
      "iz": 3741,
      "Ġsac": 3742,
      "ctares": 3743,
      "Ġ2015": 3744,
      "Ġjuste": 3745,
      "ĠAnne": 3746,
      "Ġconstruite": 3747,
      "hit": 3748,
      "Ġclo": 3749,
      "Ġtours": 3750,
      "Ġquasi": 3751,
      "lait": 3752,
      "ĠTerre": 3753,
      "Ġstations": 3754,
      "Ġorganis": 3755,
      "tidi": 3756,
      "Ġ1995": 3757,
      "Ġmenace": 3758,
      "Ġvoiture": 3759,
      "ĠSar": 3760,
      "Ġinaug": 3761,
      "Ġprovoque": 3762,
      "Ġprogressi": 3763,
      "CL": 3764,
      "ume": 3765,
      "ives": 3766,
      "Ġtrouv": 3767,
      "Ġ1992": 3768,
      "Ġoffici": 3769,
      "Ġeffets": 3770,
      "Ġchansons": 3771,
      "34": 3772,
      "vit": 3773,
      "ural": 3774,
      "ĠBal": 3775,
      "Ġtelles": 3776,
      "Ġinscrit": 3777,
      "ĠBismarck": 3778,
      "nomme": 3779,
      "cialise": 3780,
      "Ġyeux": 3781,
      "Ġappare": 3782,
      "Ġmentionne": 3783,
      "Ġpression": 3784,
      "Ġouvrages": 3785,
      "Ġrestaur": 3786,
      "formations": 3787,
      "Ġparalle": 3788,
      "ĠCa": 3789,
      "Ġunite": 3790,
      "ĠSainte": 3791,
      "Ġcourt": 3792,
      "Ġreligieux": 3793,
      "Ġcircons": 3794,
      "ĠBelgique": 3795,
      "com": 3796,
      "ÌĢ,": 3797,
      "siques": 3798,
      "Ġgag": 3799,
      "ĠBas": 3800,
      "Ġhos": 3801,
      "avait": 3802,
      "Ġcouple": 3803,
      "Ġconfirme": 3804,
      "Ġrestent": 3805,
      "ĠRoche": 3806,
      "berg": 3807,
      "Ġadapte": 3808,
      "Ġbyzantin": 3809,
      "ĠCelui": 3810,
      "38": 3811,
      "senter": 3812,
      "Ġorigine": 3813,
      "ĠMarie": 3814,
      "Ġadopte": 3815,
      "emplo": 3816,
      "Ġhectares": 3817,
      "conomie": 3818,
      "ministration": 3819,
      "Ġprennent": 3820,
      "ctes": 3821,
      "atre": 3822,
      "liore": 3823,
      "rieurs": 3824,
      "vile": 3825,
      "Ġ150": 3826,
      "Ġinternationale": 3827,
      "AS": 3828,
      "gal": 3829,
      "tein": 3830,
      "istique": 3831,
      "inaire": 3832,
      "industrie": 3833,
      "ĠSy": 3834,
      "inst": 3835,
      "ĠGeorges": 3836,
      "Pe": 3837,
      "Ġnoms": 3838,
      "trange": 3839,
      "cade": 3840,
      "Ġenne": 3841,
      "choir": 3842,
      "lain": 3843,
      "Ġgolf": 3844,
      "Ġarmes": 3845,
      "Ġphot": 3846,
      "Ġrelation": 3847,
      "licite": 3848,
      "Ġconserv": 3849,
      "Saint": 3850,
      "naires": 3851,
      "ancer": 3852,
      "ĠPat": 3853,
      "Ġpron": 3854,
      "mann": 3855,
      "Ġprince": 3856,
      "Ġcouleur": 3857,
      "udge": 3858,
      "lication": 3859,
      "Ġrevient": 3860,
      "Ġbu": 3861,
      "Ġpourtant": 3862,
      "Ġtravaille": 3863,
      "Ġaffirme": 3864,
      "Ġcontinu": 3865,
      "endemain": 3866,
      "sidence": 3867,
      "ba": 3868,
      "enses": 3869,
      "ting": 3870,
      "exemp": 3871,
      "crivain": 3872,
      "Ġdirecteur": 3873,
      "Ġvainque": 3874,
      "Ġsugge": 3875,
      "45": 3876,
      "rains": 3877,
      "ĠSco": 3878,
      "uisse": 3879,
      "Ġcommis": 3880,
      "ĠCela": 3881,
      "tudiants": 3882,
      "ĠPoke": 3883,
      "Ġcouleurs": 3884,
      "Ġsouver": 3885,
      "semb": 3886,
      "sig": 3887,
      "Ġplane": 3888,
      "limin": 3889,
      "ĠBro": 3890,
      "ĠTer": 3891,
      "ignent": 3892,
      "Indre": 3893,
      "Ġquotidi": 3894,
      "Ġpunk": 3895,
      "erman": 3896,
      "taires": 3897,
      "ĠPr": 3898,
      "ĠBri": 3899,
      "Ġtelle": 3900,
      "Ġavance": 3901,
      "Ġrenouve": 3902,
      "daction": 3903,
      "arche": 3904,
      "Ġduc": 3905,
      "ĠEs": 3906,
      "Ġcouronne": 3907,
      "Ġchampion": 3908,
      "Ġlocal": 3909,
      "Ġdistance": 3910,
      "Ġlendemain": 3911,
      "Ġremonte": 3912,
      "Ġ1989": 3913,
      "Ġlesquels": 3914,
      "Ġradio": 3915,
      "ĠCertains": 3916,
      "Ġquit": 3917,
      "ĠMil": 3918,
      "Ġchiff": 3919,
      "absence": 3920,
      "Ġpersonnalite": 3921,
      "Ġdomes": 3922,
      "Ġseuls": 3923,
      "Ġbleu": 3924,
      "mac": 3925,
      "ĠÎ": 3926,
      "Ġtomb": 3927,
      "riale": 3928,
      "riaux": 3929,
      "ĠFI": 3930,
      "mile": 3931,
      "Ġdevenu": 3932,
      "ruption": 3933,
      "Empereur": 3934,
      "lli": 3935,
      "sa": 3936,
      "ters": 3937,
      "lantique": 3938,
      "jectif": 3939,
      "uves": 3940,
      "Ġfamili": 3941,
      "tiennent": 3942,
      "Ġmorce": 3943,
      "Ġspectateurs": 3944,
      "Ġir": 3945,
      "Ĥ¬": 3946,
      "Ġbure": 3947,
      "cial": 3948,
      "ĠBla": 3949,
      "Ġconcur": 3950,
      "vu": 3951,
      "ano": 3952,
      "Ġer": 3953,
      "Ġmur": 3954,
      "ĠDurant": 3955,
      "dies": 3956,
      "Ġpuisqu": 3957,
      "Ġabrite": 3958,
      "Ġdimin": 3959,
      "Ġfestival": 3960,
      "hiver": 3961,
      "Ġpens": 3962,
      "Ġmass": 3963,
      "Ġus": 3964,
      "Ġbasse": 3965,
      "ĠDal": 3966,
      "ĠRi": 3967,
      "Ġexer": 3968,
      "ulation": 3969,
      "Ġprivile": 3970,
      "ĠPremie": 3971,
      "Ġlyce": 3972,
      "On": 3973,
      "pen": 3974,
      "Ġcla": 3975,
      "Ġrejoint": 3976,
      "rimer": 3977,
      "ĠAure": 3978,
      "ĠGi": 3979,
      "ĠJames": 3980,
      "Ġfaits": 3981,
      "Ġenvoye": 3982,
      "Ġculturel": 3983,
      "Ġpassant": 3984,
      "och": 3985,
      "ĠLim": 3986,
      "rience": 3987,
      "Ġchute": 3988,
      "ĠDan": 3989,
      "ĠRou": 3990,
      "ortent": 3991,
      "Ġplaces": 3992,
      "Ġcesse": 3993,
      "illaume": 3994,
      "Ġprovince": 3995,
      "Ġpol": 3996,
      "Ġsert": 3997,
      "tain": 3998,
      "ols": 3999,
      "ĠBourge": 4000,
      "Ġrecord": 4001,
      "titut": 4002,
      "77": 4003,
      "pl": 4004,
      "dela": 4005,
      "lien": 4006,
      "Ġappel": 4007,
      "Ġdessin": 4008,
      "Ġvrai": 4009,
      "exploitation": 4010,
      "lite": 4011,
      "we": 4012,
      "Ġfixe": 4013,
      "ĠLou": 4014,
      "tape": 4015,
      "Ġconsta": 4016,
      "Uni": 4017,
      "Ġtotale": 4018,
      "Espagne": 4019,
      "pro": 4020,
      "ĠDel": 4021,
      "Ġhab": 4022,
      "illant": 4023,
      "Ġdouze": 4024,
      "avantage": 4025,
      "sultat": 4026,
      "Ġlettres": 4027,
      "Autriche": 4028,
      "ĠConstantin": 4029,
      "55": 4030,
      "hic": 4031,
      "my": 4032,
      "ĠPas": 4033,
      "appe": 4034,
      "thode": 4035,
      "Ġrempla": 4036,
      "guay": 4037,
      "aparte": 4038,
      "mant": 4039,
      "Ġste": 4040,
      "âĢİ": 4041,
      "ĠTar": 4042,
      "installe": 4043,
      "Ġdivise": 4044,
      "Ġofficiellement": 4045,
      "Ġpeintre": 4046,
      "ft": 4047,
      "rente": 4048,
      "Ġ1993": 4049,
      "54": 4050,
      "sociation": 4051,
      "Ġcrise": 4052,
      "lage": 4053,
      "Ġ%.": 4054,
      "Ġ1991": 4055,
      "Ġpublics": 4056,
      "Ġrapporte": 4057,
      "cifique": 4058,
      "icolas": 4059,
      "Ġdemeure": 4060,
      "21": 4061,
      "Ġtu": 4062,
      "Ġther": 4063,
      "ases": 4064,
      "Ġgens": 4065,
      "ĠAt": 4066,
      "Ġtroupe": 4067,
      "igneur": 4068,
      "mettre": 4069,
      "Union": 4070,
      "Ġdevait": 4071,
      "Ġdynastie": 4072,
      "ĠNational": 4073,
      "28": 4074,
      "Ġfide": 4075,
      "Ġvieux": 4076,
      "change": 4077,
      "ival": 4078,
      "andre": 4079,
      "key": 4080,
      "Ġclubs": 4081,
      "Ġpoly": 4082,
      "tiens": 4083,
      "Ġuniquement": 4084,
      "ĠMas": 4085,
      "cession": 4086,
      "Ġpublication": 4087,
      "Ġniveaux": 4088,
      "gin": 4089,
      "toile": 4090,
      "Ġrejoin": 4091,
      "ĠSocie": 4092,
      "ĠPla": 4093,
      "Ġopp": 4094,
      "ĠWalt": 4095,
      "Hor": 4096,
      "ament": 4097,
      "iance": 4098,
      "Ġtop": 4099,
      "Ġcivil": 4100,
      "CLC": 4101,
      "Ġdieux": 4102,
      "Ġci": 4103,
      "Ġimpos": 4104,
      "Ġoccup": 4105,
      "Ġpersonnel": 4106,
      "Ġpilote": 4107,
      "Ġcu": 4108,
      "roit": 4109,
      "ĠAux": 4110,
      "paravant": 4111,
      "Ġimag": 4112,
      "ancie": 4113,
      "trice": 4114,
      "couv": 4115,
      "ws": 4116,
      "Ġden": 4117,
      "Ġcos": 4118,
      "ompe": 4119,
      "usage": 4120,
      "Ġnotre": 4121,
      "tablissements": 4122,
      "Ġmouchoir": 4123,
      "Ġmariage": 4124,
      ",âĢİ": 4125,
      "Ġ\"": 4126,
      "oug": 4127,
      "Ġgal": 4128,
      "Ġproches": 4129,
      "diate": 4130,
      "preuve": 4131,
      "Ġsuperficie": 4132,
      "ĠBonaparte": 4133,
      "Ġmanuscrit": 4134,
      "ĠBourget": 4135,
      "Ġparlement": 4136,
      "ĠBos": 4137,
      "obe": 4138,
      "ologue": 4139,
      "Ġdiffuse": 4140,
      "Ġatteindre": 4141,
      "Ġmouvements": 4142,
      "trangers": 4143,
      "Ġartistes": 4144,
      "Ġbesoin": 4145,
      "vue": 4146,
      "Ġfla": 4147,
      "ĠGas": 4148,
      "Ġprofessionnel": 4149,
      "ĠâĤ¬": 4150,
      "za": 4151,
      "seurs": 4152,
      "Ġtrente": 4153,
      "tins": 4154,
      "ristiques": 4155,
      "ĠFrank": 4156,
      "Ġgrave": 4157,
      "Ġbaseball": 4158,
      "ĠXIV": 4159,
      "Selon": 4160,
      "gorie": 4161,
      "teaux": 4162,
      "Ġallie": 4163,
      "illent": 4164,
      "ĠJeanne": 4165,
      "importance": 4166,
      "vage": 4167,
      "Ġfit": 4168,
      "Ġparai": 4169,
      "Ġchron": 4170,
      "Ġsav": 4171,
      "amment": 4172,
      "Ġpouvait": 4173,
      "Ġmoyens": 4174,
      "Ġfamilles": 4175,
      "Ġcontexte": 4176,
      "attaque": 4177,
      "Ġjaponais": 4178,
      "gles": 4179,
      "rome": 4180,
      "Ġeaux": 4181,
      "Ġtal": 4182,
      "Ġblesse": 4183,
      "Ġpros": 4184,
      "ĠEmpire": 4185,
      "ĠTrois": 4186,
      "Ġsup": 4187,
      "Ġtrain": 4188,
      "uelques": 4189,
      "Ġcinquie": 4190,
      "Ġpape": 4191,
      "ĠSmith": 4192,
      "mos": 4193,
      "ink": 4194,
      "Ġgou": 4195,
      "Ġgui": 4196,
      "ĠOu": 4197,
      "Ġabs": 4198,
      "Ġfutur": 4199,
      "Ġpauv": 4200,
      "Ġhypothe": 4201,
      "Ġenvers": 4202,
      "Ġ1982": 4203,
      "Ġflotte": 4204,
      "nov": 4205,
      "pon": 4206,
      "Ġara": 4207,
      "nel": 4208,
      "Ġbloc": 4209,
      "Ġprocess": 4210,
      "Ġexte": 4211,
      "Ġaccord": 4212,
      "ussit": 4213,
      "ĠGuillaume": 4214,
      "Ġolympique": 4215,
      "occupation": 4216,
      "Ġmajoritaire": 4217,
      "mocra": 4218,
      "Ġdite": 4219,
      "Ġcab": 4220,
      "astique": 4221,
      "Ġjardin": 4222,
      "ierry": 4223,
      "Ġ800": 4224,
      "mands": 4225,
      "Ġremarqu": 4226,
      "68": 4227,
      "ward": 4228,
      "Ġul": 4229,
      "heure": 4230,
      "ĠHit": 4231,
      "Ġheure": 4232,
      "Ġscru": 4233,
      "Ouest": 4234,
      "Ġpucerons": 4235,
      "pol": 4236,
      "Ġactions": 4237,
      "quences": 4238,
      "Ġmac": 4239,
      "Ġmagne": 4240,
      "org": 4241,
      "ild": 4242,
      "Ġnar": 4243,
      "Ġquin": 4244,
      "laise": 4245,
      "ĠJules": 4246,
      "oids": 4247,
      "Ġportant": 4248,
      "duisent": 4249,
      "67": 4250,
      "dom": 4251,
      "onie": 4252,
      "ĠSil": 4253,
      "union": 4254,
      "ĠVers": 4255,
      "ĠReich": 4256,
      "Ġreligion": 4257,
      "Ġfaci": 4258,
      "Ġmyth": 4259,
      "Ġprocessus": 4260,
      "bon": 4261,
      "bore": 4262,
      "ford": 4263,
      "guer": 4264,
      "ira": 4265,
      "Ġaide": 4266,
      "urge": 4267,
      "Ġfro": 4268,
      "Ġparis": 4269,
      "Ġbout": 4270,
      "ĠAb": 4271,
      "ĠEx": 4272,
      "Ġ600": 4273,
      "Ġconstruire": 4274,
      "Ġimm": 4275,
      "Ġromans": 4276,
      "Ġdispon": 4277,
      "ĠFrancisco": 4278,
      "effe": 4279,
      "Ġpousse": 4280,
      "inge": 4281,
      "Ġjau": 4282,
      "liquer": 4283,
      "ĠBay": 4284,
      "ĠField": 4285,
      "ĠAlors": 4286,
      "ĠXVIe": 4287,
      "Ġmesures": 4288,
      "difice": 4289,
      "ĠConse": 4290,
      "ustralie": 4291,
      "Ġdiz": 4292,
      "Ġdiscip": 4293,
      "Ġenvis": 4294,
      "Ġconfie": 4295,
      "ariat": 4296,
      "Ġvictimes": 4297,
      "Ġresponsable": 4298,
      "Louis": 4299,
      "omie": 4300,
      "ĠÂ»,.": 4301,
      "urer": 4302,
      "Ġromain": 4303,
      "tablir": 4304,
      "Ġraisons": 4305,
      "ĠFIFA": 4306,
      "rans": 4307,
      "Ġcouver": 4308,
      "Ġvole": 4309,
      "rient": 4310,
      "cessite": 4311,
      "ayant": 4312,
      "Ġ34": 4313,
      "riculture": 4314,
      "Ġvision": 4315,
      "Ġtribun": 4316,
      "Ġrespectivement": 4317,
      "Ġrenforce": 4318,
      "ĠDickens": 4319,
      "clo": 4320,
      "gine": 4321,
      "ota": 4322,
      "passe": 4323,
      "Ġ&": 4324,
      "Ġlumie": 4325,
      "isser": 4326,
      "itu": 4327,
      "altitude": 4328,
      "ĠVoy": 4329,
      "Ġterrains": 4330,
      "gional": 4331,
      "Ġouvrage": 4332,
      "clin": 4333,
      "Ġofficiel": 4334,
      "Ġcivile": 4335,
      "Ġprogressivement": 4336,
      "56": 4337,
      "ju": 4338,
      "jou": 4339,
      "sar": 4340,
      "Ġvir": 4341,
      "ĠCal": 4342,
      "Ġbudge": 4343,
      "Ġconvain": 4344,
      "ĠAut": 4345,
      "Ġconsom": 4346,
      "eld": 4347,
      "ĠChrist": 4348,
      "Ġtouche": 4349,
      "Ġperdu": 4350,
      "Ġinterne": 4351,
      "Ġappro": 4352,
      "Ġromaine": 4353,
      "Ġmention": 4354,
      "Ġoppose": 4355,
      "lectrique": 4356,
      "Ġpoursuit": 4357,
      "Ġlesquelles": 4358,
      "sous": 4359,
      "quin": 4360,
      "Ġvo": 4361,
      "Ġprinces": 4362,
      "Ġtransforme": 4363,
      "Ġchangement": 4364,
      "Ġretraite": 4365,
      "dente": 4366,
      "hors": 4367,
      "mond": 4368,
      "pression": 4369,
      "Ġpoids": 4370,
      "Ġdestin": 4371,
      "Ġballe": 4372,
      "Ġchapit": 4373,
      "ics": 4374,
      "ĠHaute": 4375,
      "Ġappre": 4376,
      "Ġterr": 4377,
      "glome": 4378,
      "Ġmondial": 4379,
      "Ġespagn": 4380,
      "Ġcommercial": 4381,
      "ĠNotre": 4382,
      "23": 4383,
      "Achille": 4384,
      "Ġpous": 4385,
      "Ġvesti": 4386,
      "Ġbourg": 4387,
      "lations": 4388,
      "ĠMace": 4389,
      "ĠFal": 4390,
      "Ġ1986": 4391,
      "Ġanimal": 4392,
      "ĠWarner": 4393,
      "58": 4394,
      "avec": 4395,
      "tur": 4396,
      "ĠMin": 4397,
      "Ġine": 4398,
      "ĠEt": 4399,
      "ĠÂ»),": 4400,
      "ĠHistoire": 4401,
      "ordes": 4402,
      "Ġ39": 4403,
      "Ġpropres": 4404,
      "Ġimportants": 4405,
      "iciens": 4406,
      "Ġvache": 4407,
      "Ġscientifique": 4408,
      "vac": 4409,
      "Ġlar": 4410,
      "Ġpot": 4411,
      "ĠMus": 4412,
      "Ġ1920": 4413,
      "ĠTri": 4414,
      "ĠCelle": 4415,
      "Ġadvers": 4416,
      "curie": 4417,
      "Ġmagazine": 4418,
      "Â°": 4419,
      "orf": 4420,
      "Ġtonnes": 4421,
      "Ġvent": 4422,
      "Ġvoc": 4423,
      "ople": 4424,
      "Ġfaveur": 4425,
      "Ġmeilleurs": 4426,
      "87": 4427,
      "moire": 4428,
      "Ġfant": 4429,
      "Ġfune": 4430,
      "ram": 4431,
      "Ġgard": 4432,
      "ligne": 4433,
      "entreprise": 4434,
      "ouvrage": 4435,
      "Ġpouvant": 4436,
      "Ġportes": 4437,
      "tionnel": 4438,
      "Ġfrag": 4439,
      "Ġmajeure": 4440,
      "Si": 4441,
      "hou": 4442,
      "hor": 4443,
      "Ġdur": 4444,
      "Ġpois": 4445,
      "Ġvente": 4446,
      "Ġbron": 4447,
      "ates": 4448,
      "ĠÂ»).": 4449,
      "Ġexcep": 4450,
      "ĠXX": 4451,
      "buts": 4452,
      "toine": 4453,
      "Ge": 4454,
      "Ġtis": 4455,
      "Ġpan": 4456,
      "Ġchoses": 4457,
      "ĠRussie": 4458,
      "ost": 4459,
      "ims": 4460,
      "administration": 4461,
      "Ġblanche": 4462,
      "esprit": 4463,
      "Assemble": 4464,
      "animation": 4465,
      "field": 4466,
      "sbourg": 4467,
      "reurs": 4468,
      "Ġinten": 4469,
      "Ġroyal": 4470,
      "archie": 4471,
      "Ġtotalement": 4472,
      "Ġolympiques": 4473,
      "39": 4474,
      "64": 4475,
      "Napole": 4476,
      "bute": 4477,
      "Ġici": 4478,
      "Ġvaste": 4479,
      "ĠTours": 4480,
      "Ġvictoires": 4481,
      "Ġissus": 4482,
      "mite": 4483,
      "ĠSue": 4484,
      "Ġpeine": 4485,
      "aven": 4486,
      "Ġchapelle": 4487,
      "lector": 4488,
      "ĠPlusieurs": 4489,
      "ĠScott": 4490,
      "nario": 4491,
      "Ġpages": 4492,
      "Ġvon": 4493,
      "Ġquart": 4494,
      "auc": 4495,
      "Ġhyd": 4496,
      "chement": 4497,
      "ĠGer": 4498,
      "Ġassociations": 4499,
      "Ġfrappe": 4500,
      "Ġreconnai": 4501,
      "Ġrassemble": 4502,
      "gen": 4503,
      "Ġamis": 4504,
      "inq": 4505,
      "itations": 4506,
      "raine": 4507,
      "Ġdesser": 4508,
      "ources": 4509,
      "ĠSeth": 4510,
      "ĠMich": 4511,
      "diction": 4512,
      "Ġryth": 4513,
      "ĠHol": 4514,
      "Ġral": 4515,
      "Ġtrace": 4516,
      "adap": 4517,
      "Ġfinit": 4518,
      "exception": 4519,
      "Ġpieds": 4520,
      "Ġsalles": 4521,
      "Ġsauve": 4522,
      "Ġmaltais": 4523,
      "Des": 4524,
      "ive": 4525,
      "ĠLens": 4526,
      "Ġber": 4527,
      "Ġcarre": 4528,
      "Ġ70": 4529,
      "Ġsorti": 4530,
      "ĠPremier": 4531,
      "ourgeois": 4532,
      "Ġmig": 4533,
      "Ġmaire": 4534,
      "Ġbassin": 4535,
      "unite": 4536,
      "ĠForm": 4537,
      "teste": 4538,
      "Me": 4539,
      "uc": 4540,
      "way": 4541,
      "Ġcle": 4542,
      "ĠMor": 4543,
      "ĠMel": 4544,
      "ĠBill": 4545,
      "aptise": 4546,
      "instru": 4547,
      "ruguay": 4548,
      "Ġjustice": 4549,
      "Ġobserv": 4550,
      "Ang": 4551,
      "Ġvisible": 4552,
      "Ġregard": 4553,
      "volue": 4554,
      "Ġaugmente": 4555,
      "32": 4556,
      "onique": 4557,
      "Ġmos": 4558,
      "uste": 4559,
      "ĠSou": 4560,
      "ĠItalie": 4561,
      "ĠVan": 4562,
      "ĠVie": 4563,
      "venir": 4564,
      "toiles": 4565,
      "Ġcontinent": 4566,
      "Ġcatholique": 4567,
      "Bre": 4568,
      "ary": 4569,
      "Ġtur": 4570,
      "ĠBourg": 4571,
      "ĠEntre": 4572,
      "Ġoblige": 4573,
      "Ġnourrit": 4574,
      "Ġcanadienne": 4575,
      "Ġautorise": 4576,
      "63": 4577,
      "rue": 4578,
      "Ġate": 4579,
      "indi": 4580,
      "rigue": 4581,
      "ĠPop": 4582,
      "ĠBob": 4583,
      "rane": 4584,
      "ĠRoger": 4585,
      "Ġsuit": 4586,
      "Ġratta": 4587,
      "Ġperman": 4588,
      "Ġmalad": 4589,
      "Ġrejoindre": 4590,
      "ĠConseil": 4591,
      "mun": 4592,
      "ister": 4593,
      "quier": 4594,
      "Ġmains": 4595,
      "Ġmobil": 4596,
      "ita": 4597,
      "Ġbate": 4598,
      "ĠBur": 4599,
      "Ġtrafic": 4600,
      "Ġministe": 4601,
      "Ġprises": 4602,
      "Ġscientifiques": 4603,
      "Ġrestauration": 4604,
      "Ġsacre": 4605,
      "Ġparten": 4606,
      "Ġvont": 4607,
      "ĠÂ°": 4608,
      "âĢĶ": 4609,
      "ĠKe": 4610,
      "Ġreprise": 4611,
      "Ġinconn": 4612,
      "hom": 4613,
      "trique": 4614,
      "rice": 4615,
      "ĠEminem": 4616,
      "amour": 4617,
      "Ġ44": 4618,
      "ĠâĢ¢": 4619,
      "ĠBeta": 4620,
      "ĠInter": 4621,
      "ault": 4622,
      "Ġscolaire": 4623,
      "Ġguerres": 4624,
      "ãĤ": 4625,
      "enis": 4626,
      "ĠCou": 4627,
      "ĠCent": 4628,
      "ĠCice": 4629,
      "Ġsection": 4630,
      "ĠMons": 4631,
      "ĠEl": 4632,
      "truit": 4633,
      "rick": 4634,
      "Ġportrait": 4635,
      "Ġnucle": 4636,
      "Ġchinois": 4637,
      "mblable": 4638,
      "Ġinaugure": 4639,
      "71": 4640,
      "74": 4641,
      "Ne": 4642,
      "euros": 4643,
      "oz": 4644,
      "sons": 4645,
      "Ġordre": 4646,
      "Ġconv": 4647,
      "Ġchau": 4648,
      "Ġouest": 4649,
      "abeth": 4650,
      "Ġ64": 4651,
      "Ġaccorde": 4652,
      "Ġexprime": 4653,
      "Ġapporte": 4654,
      "rennent": 4655,
      "Ġouvriers": 4656,
      "AJ": 4657,
      "Dame": 4658,
      "cite": 4659,
      "nor": 4660,
      "of": 4661,
      "tiqu": 4662,
      "illot": 4663,
      "Ġeng": 4664,
      "sionn": 4665,
      "ortant": 4666,
      "ĠLeur": 4667,
      "opp": 4668,
      "tenue": 4669,
      "SA": 4670,
      "ip": 4671,
      "Ġling": 4672,
      "ousin": 4673,
      "ands": 4674,
      "obile": 4675,
      "Ġmodes": 4676,
      "ĠWh": 4677,
      "Ġdisque": 4678,
      "Ġ1983": 4679,
      "Ġ1987": 4680,
      "Ġ1988": 4681,
      "Ġsports": 4682,
      "Ġmettent": 4683,
      "Ġmeilleure": 4684,
      "Ġofficielle": 4685,
      "diteur": 4686,
      "Ġplein": 4687,
      "31": 4688,
      "gar": 4689,
      "rateur": 4690,
      "raires": 4691,
      "ĠPuis": 4692,
      "Ġcho": 4693,
      "ĠRa": 4694,
      "chelle": 4695,
      "Ġseront": 4696,
      "Ġnationaux": 4697,
      "giment": 4698,
      "Ġ1978": 4699,
      "Ġdomine": 4700,
      "iverse": 4701,
      "Ġmaintenant": 4702,
      "Ġsalarie": 4703,
      "Ġsymbole": 4704,
      "Ġenvisage": 4705,
      "62": 4706,
      "].": 4707,
      "Ġreb": 4708,
      "ricole": 4709,
      "Ġchose": 4710,
      "chec": 4711,
      "Ġforment": 4712,
      "Ġminute": 4713,
      "Ġ1943": 4714,
      "51": 4715,
      "Ġnai": 4716,
      "rial": 4717,
      "ĠCentre": 4718,
      "Ġchance": 4719,
      "aga": 4720,
      "Ġrentre": 4721,
      "ĠAnd": 4722,
      "Ġchambre": 4723,
      "velopper": 4724,
      "Ġnaturel": 4725,
      "Ġrencontres": 4726,
      "Ġattaques": 4727,
      "alogue": 4728,
      "At": 4729,
      "Cha": 4730,
      "Mal": 4731,
      "Ġsovie": 4732,
      "ticles": 4733,
      "ury": 4734,
      "Ġvite": 4735,
      "ĠPendant": 4736,
      "atur": 4737,
      "Ġplans": 4738,
      "dige": 4739,
      "endie": 4740,
      "Ġalter": 4741,
      "Ġ2019": 4742,
      "Ġdivin": 4743,
      "ĠBeau": 4744,
      "Ġdocuments": 4745,
      "entielle": 4746,
      "Ġtendance": 4747,
      "Ġidentifie": 4748,
      "Se": 4749,
      "fici": 4750,
      "Ġscore": 4751,
      "ores": 4752,
      "quet": 4753,
      "Ġtest": 4754,
      "Ġauparavant": 4755,
      "llerie": 4756,
      "dium": 4757,
      "igh": 4758,
      "Ġsciences": 4759,
      "Ġcaval": 4760,
      "Ġdescend": 4761,
      "Ġdatant": 4762,
      ".)": 4763,
      "go": 4764,
      "gard": 4765,
      "Ġsouv": 4766,
      "Ġsoie": 4767,
      "titions": 4768,
      "quival": 4769,
      "rase": 4770,
      "ĠLib": 4771,
      "Ġquanti": 4772,
      "Ġantique": 4773,
      "ĠJuifs": 4774,
      "Ġfinancie": 4775,
      "ĠReims": 4776,
      "Åĵurs": 4777,
      "Ġcommunication": 4778,
      "atrice": 4779,
      "ĠGuy": 4780,
      "Ġrecherches": 4781,
      "Ġcycle": 4782,
      "Char": 4783,
      "Ġvainqueur": 4784,
      "Horus": 4785,
      "69": 4786,
      "Franc": 4787,
      "hal": 4788,
      "cel": 4789,
      "peau": 4790,
      "Ġcomposition": 4791,
      "Ġplantes": 4792,
      "agers": 4793,
      "Ġante": 4794,
      "Ġrues": 4795,
      "tudie": 4796,
      "Enfin": 4797,
      "igner": 4798,
      "Ġabou": 4799,
      "entine": 4800,
      "Ġparcours": 4801,
      "criptions": 4802,
      "Ġglob": 4803,
      "Ġphilosophie": 4804,
      "gence": 4805,
      "pent": 4806,
      "orld": 4807,
      "Ġvin": 4808,
      "ĠRos": 4809,
      "ĠNicolas": 4810,
      "ĠKar": 4811,
      "Ġmach": 4812,
      "Ġcarte": 4813,
      "ider": 4814,
      "formes": 4815,
      "ĠAngleterre": 4816,
      "Ġtypes": 4817,
      "Ġvoient": 4818,
      "conomiques": 4819,
      "ancia": 4820,
      "Ġdistingue": 4821,
      "Ġfleuve": 4822,
      "dant": 4823,
      "anie": 4824,
      "orient": 4825,
      "Ġcontient": 4826,
      "Ġchale": 4827,
      "Ġimpose": 4828,
      "Ġimplante": 4829,
      "Ġ1974": 4830,
      "Ġparticipation": 4831,
      "Ġillustre": 4832,
      "Ġcollaboration": 4833,
      "79": 4834,
      "fu": 4835,
      "deux": 4836,
      "rienne": 4837,
      "ĠCap": 4838,
      "Ġgerman": 4839,
      "Ġprojets": 4840,
      "ĠGa": 4841,
      "pole": 4842,
      "ube": 4843,
      "enstein": 4844,
      "Ġposses": 4845,
      "Ġdeviennent": 4846,
      "Ġrapproche": 4847,
      "Ġaffir": 4848,
      "pects": 4849,
      "Ġcroissance": 4850,
      "Paul": 4851,
      "Ġmm": 4852,
      "Ġrede": 4853,
      "ĠPan": 4854,
      "Ġgardi": 4855,
      "ĠAllemagne": 4856,
      "Ġinves": 4857,
      "Ġcontribue": 4858,
      "Ġperc": 4859,
      "Ġ38": 4860,
      "Ġprincipe": 4861,
      "lusion": 4862,
      "issue": 4863,
      "Ġhistoriens": 4864,
      "Ġprisonn": 4865,
      "Ġ/": 4866,
      "Ġpiste": 4867,
      "ĠEr": 4868,
      "glises": 4869,
      "Ġallemands": 4870,
      "gypte": 4871,
      "Ġinvite": 4872,
      "dat": 4873,
      "intes": 4874,
      "incent": 4875,
      "Ġfl": 4876,
      "Ġnorm": 4877,
      "ĠCra": 4878,
      "Ġbibliothe": 4879,
      "ĠMad": 4880,
      "ĠDom": 4881,
      "ings": 4882,
      "Ġpointe": 4883,
      "194": 4884,
      "Ġautom": 4885,
      "Ġmascul": 4886,
      "architecte": 4887,
      "tissement": 4888,
      "clope": 4889,
      "ctifs": 4890,
      "Ġ$": 4891,
      "Ġcam": 4892,
      "seille": 4893,
      "Ġauteur": 4894,
      "ĠSk": 4895,
      "agriculture": 4896,
      "istocra": 4897,
      "impact": 4898,
      "thle": 4899,
      "ignant": 4900,
      "Ġ1941": 4901,
      "Ġ1968": 4902,
      "entite": 4903,
      "Ġsubs": 4904,
      "Ġvictime": 4905,
      "publicains": 4906,
      "emploi": 4907,
      "Marie": 4908,
      "diter": 4909,
      "Ġdegre": 4910,
      "Ġtorn": 4911,
      "ĠLoire": 4912,
      "ĠLancia": 4913,
      "sibles": 4914,
      "ĠGame": 4915,
      "ularite": 4916,
      "Ġroche": 4917,
      "Ġconnaissance": 4918,
      "Ġconnaiss": 4919,
      "ĠAlbert": 4920,
      "ĠClaude": 4921,
      "Ġsportifs": 4922,
      "nagement": 4923,
      "Ġmunicipalite": 4924,
      "Ġpleine": 4925,
      "Ġcomportement": 4926,
      "Ġvisiteurs": 4927,
      "bite": 4928,
      "rouve": 4929,
      "Ġfrise": 4930,
      "ĠCont": 4931,
      "Ġprovo": 4932,
      "Ġsonde": 4933,
      "Ġperte": 4934,
      "Ġsouligne": 4935,
      "ĠAnge": 4936,
      "Ġproduire": 4937,
      "Ġ90": 4938,
      "clen": 4939,
      "Ġindivid": 4940,
      "Ġfaite": 4941,
      "Ġvolume": 4942,
      "73": 4943,
      "Bas": 4944,
      "The": 4945,
      "ctive": 4946,
      "han": 4947,
      "Ġdehors": 4948,
      "Ġsil": 4949,
      "Ġfisc": 4950,
      "rael": 4951,
      "ĠTu": 4952,
      "ĠHong": 4953,
      "Ġcontact": 4954,
      "tension": 4955,
      "Ġspati": 4956,
      "Ġ1975": 4957,
      "Ġtravailler": 4958,
      "Ġagric": 4959,
      "accord": 4960,
      "Ġjeunesse": 4961,
      "Ġreligieuse": 4962,
      "Ġclaire": 4963,
      "Ġmines": 4964,
      "chi": 4965,
      "Ġconque": 4966,
      "ĠNav": 4967,
      "Ġ1870": 4968,
      "anges": 4969,
      "servoir": 4970,
      "Ins": 4971,
      "Ġenfant": 4972,
      "Ġmodifie": 4973,
      "Ġaffecte": 4974,
      "ĠFielding": 4975,
      "53": 4976,
      "86": 4977,
      "Ġcru": 4978,
      "ĠCas": 4979,
      "endo": 4980,
      "ĠFont": 4981,
      "appel": 4982,
      "Ġracon": 4983,
      "Ġmarbre": 4984,
      "ington": 4985,
      "Ġmatin": 4986,
      "Ġgraph": 4987,
      "Ġ1977": 4988,
      "Ġmusul": 4989,
      "Ġemprun": 4990,
      "Ġsecondaire": 4991,
      "Ġinflu": 4992,
      "Ġessais": 4993,
      "onnerie": 4994,
      "Ġmunicipal": 4995,
      "Ġstudios": 4996,
      "ĠMaurice": 4997,
      "Plusieurs": 4998,
      "bat": 4999,
      "any": 5000,
      "ind": 5001,
      "Ġgaz": 5002,
      "ulsion": 5003,
      "Ġ49": 5004,
      "Ġprintemps": 5005,
      "Ġapparaissent": 5006,
      "ĠIsrael": 5007,
      "Ġcondamne": 5008,
      "Ath": 5009,
      "nier": 5010,
      "pais": 5011,
      "uy": 5012,
      "Ġmurs": 5013,
      "autant": 5014,
      "ĠAlle": 5015,
      "ĠBes": 5016,
      "Ġsurve": 5017,
      "Ġcomprenant": 5018,
      "Ġrenomme": 5019,
      "Ġchampagne": 5020,
      "Ġretrouver": 5021,
      "Ġanglaise": 5022,
      "Ġdestruction": 5023,
      "Ġparents": 5024,
      "Ġvert": 5025,
      "chilla": 5026,
      "Ġuniverse": 5027,
      "ĠPont": 5028,
      "ĠOt": 5029,
      "Ġmaquis": 5030,
      "Ġsymp": 5031,
      "Ġminim": 5032,
      "Ġ1942": 5033,
      "volte": 5034,
      "Ġcommandant": 5035,
      "Bretagne": 5036,
      "Qu": 5037,
      "atives": 5038,
      "quente": 5039,
      "Ġparler": 5040,
      "rid": 5041,
      "ĠAthe": 5042,
      "univers": 5043,
      "Ġrusse": 5044,
      "uistique": 5045,
      "ctor": 5046,
      "cute": 5047,
      "Ġtiers": 5048,
      "Ġcode": 5049,
      "Ġcommunale": 5050,
      "Ġpaysans": 5051,
      "Ġmontrent": 5052,
      "Ġcroy": 5053,
      "decin": 5054,
      "Ġdan": 5055,
      "Ġcomite": 5056,
      "ĠSuisse": 5057,
      "ĠAg": 5058,
      "ĠBul": 5059,
      "aptiste": 5060,
      "Ġformer": 5061,
      "Ġmaillot": 5062,
      "phore": 5063,
      "Ġprim": 5064,
      "contre": 5065,
      "ĠXVe": 5066,
      "ĠStar": 5067,
      "oriz": 5068,
      "Ġsimplement": 5069,
      "ĠSuper": 5070,
      "Ġconcept": 5071,
      "Ġmaladie": 5072,
      "59": 5073,
      "cosse": 5074,
      "rants": 5075,
      "Ġcuis": 5076,
      "Ġcondition": 5077,
      "ĠAir": 5078,
      "ĠRac": 5079,
      "sentants": 5080,
      "Ġ1962": 5081,
      "ĠChaque": 5082,
      "Ġportent": 5083,
      "Ġ1938": 5084,
      "Ġagricole": 5085,
      "Ġcapitaine": 5086,
      "Ġitalienne": 5087,
      "Ġcanton": 5088,
      "gisla": 5089,
      "ĠGaston": 5090,
      "Ġbudget": 5091,
      "hait": 5092,
      "wit": 5093,
      "arts": 5094,
      "itent": 5095,
      "Ġdiame": 5096,
      "server": 5097,
      "Ġtransfe": 5098,
      "Ġ1966": 5099,
      "Ġrappelle": 5100,
      "Ġsuffis": 5101,
      "ailles": 5102,
      "ker": 5103,
      "Ġorth": 5104,
      "Ġvents": 5105,
      "Ġventes": 5106,
      "ĠBritann": 5107,
      "Ġacces": 5108,
      "ĠParti": 5109,
      "Ġorigines": 5110,
      "rection": 5111,
      "alisme": 5112,
      "Ġparu": 5113,
      "oling": 5114,
      "irie": 5115,
      "Ġneut": 5116,
      "ĠHug": 5117,
      "Ġmoindre": 5118,
      "association": 5119,
      "Ġimages": 5120,
      "Ġversions": 5121,
      "ĠQuelques": 5122,
      "ĠUnivers": 5123,
      "Ġindivi": 5124,
      "Ġesprit": 5125,
      "Ġconstitution": 5126,
      "Ġpartisans": 5127,
      "ĠChambe": 5128,
      "Ġbronze": 5129,
      "Ġdos": 5130,
      "Ġsen": 5131,
      "arrie": 5132,
      "Ġfi": 5133,
      "Ġbil": 5134,
      "ĠbÅĵuf": 5135,
      "Ġconception": 5136,
      "ĠMex": 5137,
      "ĠBoy": 5138,
      "Ġconsul": 5139,
      "Ġallant": 5140,
      "Ġrecru": 5141,
      "Ġobtenir": 5142,
      "Ġtourisme": 5143,
      "ĠComite": 5144,
      "Ġscrutin": 5145,
      "Ġjaune": 5146,
      "fer": 5147,
      "tour": 5148,
      "volu": 5149,
      "wa": 5150,
      "Ġpy": 5151,
      "Ġtran": 5152,
      "Ġexce": 5153,
      "ĠChu": 5154,
      "Ġplateau": 5155,
      "allon": 5156,
      "Anne": 5157,
      "Ġspir": 5158,
      "Ġ1979": 5159,
      "doine": 5160,
      "ĠFormule": 5161,
      "Ġquantite": 5162,
      "fil": 5163,
      "Ġretire": 5164,
      "estres": 5165,
      "Ġconne": 5166,
      "Ġsujets": 5167,
      "Ġcompare": 5168,
      "minin": 5169,
      "Ġcampagnes": 5170,
      "Ġnoirs": 5171,
      "Ġdynam": 5172,
      "finitivement": 5173,
      "Afrique": 5174,
      "yr": 5175,
      "ÌĬ": 5176,
      "tiles": 5177,
      "Ġlacs": 5178,
      "ĠNice": 5179,
      "ĠMarine": 5180,
      "Ġinstitu": 5181,
      "Ġ1984": 5182,
      "derick": 5183,
      "Ġconcentre": 5184,
      "Ġnaturelle": 5185,
      "Ġcentres": 5186,
      "Ġdistribution": 5187,
      "Ġallemandes": 5188,
      "Ġdonnent": 5189,
      "douard": 5190,
      "Ġsait": 5191,
      "Ġlait": 5192,
      "ĠBlanc": 5193,
      "Ġavions": 5194,
      "Ġtraduit": 5195,
      "sentations": 5196,
      "Ġfeme": 5197,
      "Ġsouhait": 5198,
      "Ġobjet": 5199,
      "clame": 5200,
      "Ġparcs": 5201,
      "Ġlangues": 5202,
      "parer": 5203,
      "Ġsuccessi": 5204,
      "ĠNorve": 5205,
      "bie": 5206,
      "cro": 5207,
      "cos": 5208,
      "rond": 5209,
      "Ġsoir": 5210,
      "Ġscience": 5211,
      "ratrice": 5212,
      "Ġsatis": 5213,
      "ricaines": 5214,
      "Ġrive": 5215,
      "Ġeffic": 5216,
      "migration": 5217,
      "Ġmanifestations": 5218,
      "Ġbombardements": 5219,
      "Ġsimilaire": 5220,
      "mosphe": 5221,
      "AF": 5222,
      "dits": 5223,
      "zie": 5224,
      "tite": 5225,
      "Ġsemb": 5226,
      "olfe": 5227,
      "ĠAmer": 5228,
      "ĠDieu": 5229,
      "Ġtrous": 5230,
      "Ġ37": 5231,
      "ĠAll": 5232,
      "Ġlangage": 5233,
      "Ġclimat": 5234,
      "ommage": 5235,
      "Ġprofondeur": 5236,
      "Ġprovenant": 5237,
      "Ġouverte": 5238,
      "ĠConstantinople": 5239,
      "61": 5240,
      "cus": 5241,
      "Ġlaissant": 5242,
      "Ġrepose": 5243,
      "cela": 5244,
      "Ġnains": 5245,
      "ciens": 5246,
      "dias": 5247,
      "Ġtraduction": 5248,
      "ĠMarseille": 5249,
      "Ġsoule": 5250,
      "Ġconstruits": 5251,
      "Ġpubliques": 5252,
      "Ġreconnaissance": 5253,
      "Ġparticiper": 5254,
      "ĠStade": 5255,
      "Orle": 5256,
      "Ġconsommation": 5257,
      "85": 5258,
      "Ad": 5259,
      "Ġ=": 5260,
      "Ġsin": 5261,
      "ĠSim": 5262,
      "ĠSoleil": 5263,
      "Ġcongre": 5264,
      "Ġproposition": 5265,
      "agglome": 5266,
      "Ġconsiste": 5267,
      "intendo": 5268,
      "Ġriv": 5269,
      "Ġvisage": 5270,
      "lacement": 5271,
      "accueil": 5272,
      "own": 5273,
      "Ġsportif": 5274,
      "Ġexclus": 5275,
      "Ġraconte": 5276,
      "France": 5277,
      "Ġaction": 5278,
      "Ġlaisser": 5279,
      "rod": 5280,
      "sic": 5281,
      "ung": 5282,
      "ĠVende": 5283,
      "Ġmare": 5284,
      "Ġpopulaires": 5285,
      "ophone": 5286,
      "cret": 5287,
      "Ġdisparu": 5288,
      "Ġprofessionnels": 5289,
      "Ġcommencent": 5290,
      "lovaquie": 5291,
      "81": 5292,
      "He": 5293,
      "ael": 5294,
      "glement": 5295,
      "yes": 5296,
      "Ġdavantage": 5297,
      "ena": 5298,
      "Ġeut": 5299,
      "Ġmu": 5300,
      "Ġmonn": 5301,
      "Ġcomment": 5302,
      "ĠMic": 5303,
      "less": 5304,
      "Ġhar": 5305,
      "Ġhor": 5306,
      "preuves": 5307,
      "Ġavent": 5308,
      "Ġasc": 5309,
      "Ġfonctions": 5310,
      "expression": 5311,
      "Ġ1914": 5312,
      "Ġfaibles": 5313,
      "Ġenvironnement": 5314,
      "Ġarchitect": 5315,
      "33": 5316,
      "Ġred": 5317,
      "Ġrepe": 5318,
      "ourir": 5319,
      "liance": 5320,
      "opposition": 5321,
      "Ġauxque": 5322,
      "Ġreprendre": 5323,
      "Ġgratu": 5324,
      "Ġ1985": 5325,
      "quipements": 5326,
      "Ġouvre": 5327,
      "Ġparoisse": 5328,
      "Com": 5329,
      "empe": 5330,
      "gende": 5331,
      "ãĥ": 5332,
      "ark": 5333,
      "Ġmix": 5334,
      "Ġbaisse": 5335,
      "ĠFlor": 5336,
      "Ġrit": 5337,
      "ĠNintendo": 5338,
      "Ġmonaste": 5339,
      "Ġhumains": 5340,
      "Ġoccidentale": 5341,
      "Ġvestiges": 5342,
      "dont": 5343,
      "fend": 5344,
      "pas": 5345,
      "Ġmic": 5346,
      "mement": 5347,
      "Ġparoles": 5348,
      "Ġques": 5349,
      "ophe": 5350,
      "ĠWorld": 5351,
      "Ġplais": 5352,
      "Ġpeup": 5353,
      "Ġatteste": 5354,
      "rasse": 5355,
      "tablit": 5356,
      "Ġrevenus": 5357,
      "pisodes": 5358,
      "Ġsignifie": 5359,
      "Ġvivant": 5360,
      "Ġsentiment": 5361,
      "ĠVirgile": 5362,
      "boy": 5363,
      "couvre": 5364,
      "nonce": 5365,
      "Ġvan": 5366,
      "Ġjuri": 5367,
      "ĠBi": 5368,
      "Ġpreuve": 5369,
      "ĠHam": 5370,
      "ami": 5371,
      "ayer": 5372,
      "ayrac": 5373,
      "Ġarts": 5374,
      "Ġarrie": 5375,
      "Ġrecue": 5376,
      "Ġfilles": 5377,
      "venu": 5378,
      "Ġstatu": 5379,
      "Ġstades": 5380,
      "Ġcapture": 5381,
      "Ġconcert": 5382,
      "Ġmises": 5383,
      "Ġjanse": 5384,
      "Ġcentaines": 5385,
      "ugby": 5386,
      "ĠMaj": 5387,
      "apparition": 5388,
      "Ġbelge": 5389,
      "cure": 5390,
      "tron": 5391,
      "Ġmang": 5392,
      "Ġton": 5393,
      "ĠPrin": 5394,
      "ĠMaine": 5395,
      "Ġtraces": 5396,
      "Ġfinance": 5397,
      "criture": 5398,
      "Ġmontagnes": 5399,
      "Ġ1963": 5400,
      "Ġmettant": 5401,
      "Ġattendre": 5402,
      "Ġhumaine": 5403,
      "Ġtournois": 5404,
      "Ġfabric": 5405,
      "historien": 5406,
      "Ġrythme": 5407,
      "Croix": 5408,
      "Ã¦": 5409,
      "Ġnoire": 5410,
      "sive": 5411,
      "labore": 5412,
      "ĠPress": 5413,
      "Ġhiver": 5414,
      "ĠGo": 5415,
      "observ": 5416,
      "Ġ1964": 5417,
      "Ġmilliers": 5418,
      "Ġaffron": 5419,
      "Ġauraient": 5420,
      "Ġfaisait": 5421,
      "Ġsportive": 5422,
      "Ġstructures": 5423,
      "Ġvoyageurs": 5424,
      "ĠSamuel": 5425,
      "Ġpeinture": 5426,
      "Ġquitter": 5427,
      "66": 5428,
      "Th": 5429,
      "nat": 5430,
      "antine": 5431,
      "ĠBorde": 5432,
      "Ġrare": 5433,
      "duits": 5434,
      "Ġentoure": 5435,
      "Ġmodern": 5436,
      "Ġpoursuiv": 5437,
      "Ġrisque": 5438,
      "Ġprononce": 5439,
      "Ġcommission": 5440,
      "los": 5441,
      "riodes": 5442,
      "cho": 5443,
      "ĠPie": 5444,
      "Ġjui": 5445,
      "ĠFC": 5446,
      "avions": 5447,
      "Ġfinanci": 5448,
      "Ġautrich": 5449,
      "Ġimage": 5450,
      "Ġapproche": 5451,
      "Ġvolont": 5452,
      "Ġ1958": 5453,
      "Ġmodernes": 5454,
      "Ġdisparition": 5455,
      "Ġexploite": 5456,
      "Ġreligieuses": 5457,
      "Ġaccueillir": 5458,
      "BC": 5459,
      "tures": 5460,
      "Ġathle": 5461,
      "armes": 5462,
      "Ġnaz": 5463,
      "ĠCle": 5464,
      "ĠSc": 5465,
      "ĠAth": 5466,
      "Ġproje": 5467,
      "ĠDie": 5468,
      "ĠFant": 5469,
      "ierres": 5470,
      "imm": 5471,
      "tifier": 5472,
      "tyle": 5473,
      "Ġdirect": 5474,
      "Ġsortir": 5475,
      "ĠBernard": 5476,
      "Ġespace": 5477,
      "Ġcycl": 5478,
      "Ġservir": 5479,
      "Ed": 5480,
      "Hen": 5481,
      "oins": 5482,
      "up": 5483,
      "riment": 5484,
      "Ġbourgeois": 5485,
      "ĠPros": 5486,
      "ĠRam": 5487,
      "avance": 5488,
      "Ġacteurs": 5489,
      "Ġcarb": 5490,
      "Ġpuisse": 5491,
      "Ġutiliser": 5492,
      "autom": 5493,
      "Ġ1976": 5494,
      "auru": 5495,
      "Ġcombats": 5496,
      "Ġdimanche": 5497,
      "ĠBesanc": 5498,
      "48": 5499,
      "Ces": 5500,
      "ccident": 5501,
      "couvert": 5502,
      "fond": 5503,
      "lar": 5504,
      "nac": 5505,
      "rine": 5506,
      "ish": 5507,
      "ory": 5508,
      "Ġth": 5509,
      "Ġtoit": 5510,
      "seud": 5511,
      "Ġinformations": 5512,
      "istoires": 5513,
      "Ġcomptait": 5514,
      "Ġ%).": 5515,
      "Ġinstal": 5516,
      "Ġcourte": 5517,
      "Ġ1860": 5518,
      "Ġviolence": 5519,
      "Ġcircuit": 5520,
      "Ġtentative": 5521,
      "alifor": 5522,
      "Ġmultiples": 5523,
      "ĠAnglais": 5524,
      "diatement": 5525,
      "Ġchapitre": 5526,
      "Sur": 5527,
      "qua": 5528,
      "Ġviennent": 5529,
      "ĠCer": 5530,
      "ĠDiv": 5531,
      "ĠGene": 5532,
      "ama": 5533,
      "ondes": 5534,
      "Ġdisposition": 5535,
      "Ġsoumis": 5536,
      "dents": 5537,
      "Ġrepris": 5538,
      "Ġutilisant": 5539,
      "Ġ1954": 5540,
      "Ġconstituent": 5541,
      "Ġjournaliste": 5542,
      "Ġoriginale": 5543,
      "Ġennemis": 5544,
      "gration": 5545,
      "mons": 5546,
      "Ġlecteur": 5547,
      "Ġvendre": 5548,
      "Ġvivre": 5549,
      "Ġbro": 5550,
      "Ġbass": 5551,
      "Ġseigneur": 5552,
      "ĠMaison": 5553,
      "atoires": 5554,
      "endorf": 5555,
      "ander": 5556,
      "Ġexemplaires": 5557,
      "Ġtyp": 5558,
      "difie": 5559,
      "Ġcalc": 5560,
      "Ġchefs": 5561,
      "Ġsportives": 5562,
      "Ġbritanniques": 5563,
      "Ġremarque": 5564,
      "Ġgrecque": 5565,
      "Ġcontemporains": 5566,
      "ismes": 5567,
      "lecteurs": 5568,
      "rales": 5569,
      "ĠLag": 5570,
      "ĠCam": 5571,
      "Ġbo": 5572,
      "Ġbranche": 5573,
      "ciers": 5574,
      "ĠGau": 5575,
      "ĠKra": 5576,
      "Åĵil": 5577,
      "ologues": 5578,
      "Ġconnus": 5579,
      "Ġsuivre": 5580,
      "courage": 5581,
      "Ġbesoins": 5582,
      "lovaque": 5583,
      "Ġsouven": 5584,
      "Ber": 5585,
      "sta": 5586,
      "Ġpierres": 5587,
      "Ġment": 5588,
      "ĠLyon": 5589,
      "Ġceint": 5590,
      "ĠRene": 5591,
      "Ġanalyse": 5592,
      "partis": 5593,
      "tuer": 5594,
      "sentes": 5595,
      "Ġaspects": 5596,
      "Ġobtenu": 5597,
      "Ġfondament": 5598,
      "Ġprofesseur": 5599,
      "hip": 5600,
      "apitale": 5601,
      "gentine": 5602,
      "mas": 5603,
      "oo": 5604,
      "solution": 5605,
      "{\\": 5606,
      "Ġlic": 5607,
      "urier": 5608,
      "diens": 5609,
      "Ġoise": 5610,
      "Ġcartes": 5611,
      "tistes": 5612,
      "ristique": 5613,
      "ids": 5614,
      "azz": 5615,
      "Ġaller": 5616,
      "appu": 5617,
      "Ġbases": 5618,
      "ĠIsrae": 5619,
      "Ġpilotes": 5620,
      "Parmi": 5621,
      "Ġsaisons": 5622,
      "diterrane": 5623,
      "76": 5624,
      "vages": 5625,
      "Ġdon": 5626,
      "Ġlien": 5627,
      "ensions": 5628,
      "Ġfru": 5629,
      "roge": 5630,
      "tas": 5631,
      "Ġhui": 5632,
      "ogne": 5633,
      "truite": 5634,
      "Ġjusque": 5635,
      "ification": 5636,
      "Ġnationales": 5637,
      "Ġ1946": 5638,
      "Ġcache": 5639,
      "Ġmilliards": 5640,
      "Ġdiffusion": 5641,
      "Ġterritori": 5642,
      "Ġpromo": 5643,
      "Ġinitialement": 5644,
      "truis": 5645,
      "Ġtribunal": 5646,
      "Ġnourriture": 5647,
      "72": 5648,
      "ius": 5649,
      "reux": 5650,
      "ĠsÅĵur": 5651,
      "Ġ120": 5652,
      "ĠBan": 5653,
      "diaire": 5654,
      "ĠTout": 5655,
      "ĠJo": 5656,
      "ĠVille": 5657,
      "Ġartif": 5658,
      "identite": 5659,
      "Ġmillion": 5660,
      "rastru": 5661,
      "Ġsuffrages": 5662,
      "Ġfouilles": 5663,
      "Ġchoisi": 5664,
      "Ġsolaire": 5665,
      "ĠCompagn": 5666,
      "ĠRenaissance": 5667,
      "hicules": 5668,
      "Ġdensite": 5669,
      "Ġremont": 5670,
      "aisons": 5671,
      "ĠBlan": 5672,
      "termine": 5673,
      "ĠDou": 5674,
      "actions": 5675,
      "ĠTous": 5676,
      "Ġsuis": 5677,
      "Ġnette": 5678,
      "ierge": 5679,
      "Ġacquis": 5680,
      "Ġ32": 5681,
      "via": 5682,
      "Ġimplique": 5683,
      "ĠAngers": 5684,
      "autor": 5685,
      "Ġtennis": 5686,
      "Ġsecondes": 5687,
      "Ġentend": 5688,
      "Ġisrae": 5689,
      "Ġsombre": 5690,
      "Ġ1793": 5691,
      "Ġrattache": 5692,
      ".),": 5693,
      "Cl": 5694,
      "cits": 5695,
      "fi": 5696,
      "Ġdig": 5697,
      "engage": 5698,
      "Ġcler": 5699,
      "quili": 5700,
      "Ġvise": 5701,
      "ĠCalifor": 5702,
      "ĠPen": 5703,
      "ĠEv": 5704,
      "ader": 5705,
      "Ġappartient": 5706,
      "ĠAlpes": 5707,
      "roport": 5708,
      "Ġfondation": 5709,
      "appro": 5710,
      "Ġpratiques": 5711,
      "Ġtableaux": 5712,
      "Ġcandidats": 5713,
      "ĠAuguste": 5714,
      "ĠHitler": 5715,
      "quilibre": 5716,
      "Bien": 5717,
      "feld": 5718,
      "Ġski": 5719,
      "arque": 5720,
      "Ġfaute": 5721,
      "Ġconduite": 5722,
      "unique": 5723,
      "agog": 5724,
      "ĠHa": 5725,
      "els": 5726,
      "Ġattire": 5727,
      "Ġdomaines": 5728,
      "ĠRover": 5729,
      "ĠQuand": 5730,
      "Ġisole": 5731,
      "Ġmajeur": 5732,
      "Ġactuellement": 5733,
      "Ġchacune": 5734,
      "fred": 5735,
      "Ġprolongement": 5736,
      "Uruguay": 5737,
      "bourne": 5738,
      "oule": 5739,
      "orges": 5740,
      "Ġprovient": 5741,
      "loyd": 5742,
      "Ġcompter": 5743,
      "Ġmarine": 5744,
      "exte": 5745,
      "anneau": 5746,
      "Ġsuivants": 5747,
      "Ġconseiller": 5748,
      "Arbonne": 5749,
      "Ġtenu": 5750,
      "Ġporter": 5751,
      "Ġordres": 5752,
      "Ġcommandement": 5753,
      "ĠFinalement": 5754,
      "piration": 5755,
      "Martin": 5756,
      "liorer": 5757,
      "ĠDalayrac": 5758,
      "49": 5759,
      "cen": 5760,
      "din": 5761,
      "nich": 5762,
      "ironnement": 5763,
      "ĠGir": 5764,
      "Ġneige": 5765,
      "tone": 5766,
      "criv": 5767,
      "Ġ1972": 5768,
      "Ġemplois": 5769,
      "llent": 5770,
      "Ġcroix": 5771,
      "Ġreconnu": 5772,
      "effet": 5773,
      "Ġresponsabilite": 5774,
      "Institut": 5775,
      "ĠAllemands": 5776,
      "genstein": 5777,
      "lits": 5778,
      "Ġdanger": 5779,
      "uro": 5780,
      "Ġtab": 5781,
      "ourt": 5782,
      "Ġnage": 5783,
      "ĠMu": 5784,
      "âĢĵ": 5785,
      "ĠRock": 5786,
      "ight": 5787,
      "ĠNous": 5788,
      "exposition": 5789,
      "Ġrester": 5790,
      "Ġstatis": 5791,
      "ĠPeu": 5792,
      "Ġressources": 5793,
      "ittgenstein": 5794,
      "Ġmauvais": 5795,
      "Comme": 5796,
      "Orient": 5797,
      "Roy": 5798,
      "nar": 5799,
      "por": 5800,
      "Ê»": 5801,
      "Ġ+": 5802,
      "Ġquoi": 5803,
      "Ġauquel": 5804,
      "ĠCro": 5805,
      "Ġsex": 5806,
      "atte": 5807,
      "atures": 5808,
      "Ġprovis": 5809,
      "Ġsurv": 5810,
      "inet": 5811,
      "Ġrhe": 5812,
      "Ġdipl": 5813,
      "ĠOCLC": 5814,
      "tenance": 5815,
      "ĠAnton": 5816,
      "Ġbiens": 5817,
      "Ġ700": 5818,
      "Ġapparition": 5819,
      "Ġ1965": 5820,
      "Ġ1967": 5821,
      "Ġaffaires": 5822,
      "Ġsociales": 5823,
      "Ġmaritime": 5824,
      "hithe": 5825,
      "Ġgagner": 5826,
      "ponse": 5827,
      "daille": 5828,
      "fes": 5829,
      "lue": 5830,
      "Ġda": 5831,
      "Ġlave": 5832,
      "ĠLab": 5833,
      "ĠCos": 5834,
      "ĠSous": 5835,
      "liz": 5836,
      "igu": 5837,
      "ĠVI": 5838,
      "Ġperce": 5839,
      "tenus": 5840,
      "finale": 5841,
      "Ġsouter": 5842,
      "Ġquator": 5843,
      "Ġenvoie": 5844,
      "ĠCharente": 5845,
      "Ġappelle": 5846,
      "ikman": 5847,
      "ĠBretagne": 5848,
      "Ġchasseurs": 5849,
      "Ġsuppose": 5850,
      "hab": 5851,
      "iche": 5852,
      "jour": 5853,
      "menter": 5854,
      "ude": 5855,
      "red": 5856,
      "analyse": 5857,
      "orce": 5858,
      "ĠShe": 5859,
      "Ġher": 5860,
      "Ġtram": 5861,
      "impose": 5862,
      "ĠEnf": 5863,
      "tification": 5864,
      "Ġrecon": 5865,
      "ĠPark": 5866,
      "empire": 5867,
      "Ġoccasion": 5868,
      "Ġpaysage": 5869,
      "Ġmini": 5870,
      "Ġincar": 5871,
      "Ġculturelles": 5872,
      "Ġvenir": 5873,
      "Ġspectacle": 5874,
      "Ġcrate": 5875,
      "ĠXIIe": 5876,
      "quipage": 5877,
      "Ġappareils": 5878,
      "ĠLouise": 5879,
      "itions": 5880,
      "lla": 5881,
      "Ġnul": 5882,
      "riens": 5883,
      "chou": 5884,
      "ĠCat": 5885,
      "loigne": 5886,
      "Ġaltitude": 5887,
      "Ġroches": 5888,
      "ĠRec": 5889,
      "Ġcouche": 5890,
      "mateur": 5891,
      "Ġkg": 5892,
      "Ġimportance": 5893,
      "Ġ1948": 5894,
      "Ġpresti": 5895,
      "interpre": 5896,
      "Ġartistique": 5897,
      "putation": 5898,
      "Ġsemblent": 5899,
      "82": 5900,
      "Avec": 5901,
      "cors": 5902,
      "galite": 5903,
      "pour": 5904,
      "Ġparfaite": 5905,
      "sim": 5906,
      "Ġcomique": 5907,
      "ĠPorte": 5908,
      "ĠMiss": 5909,
      "Ġ1918": 5910,
      "ican": 5911,
      "Ġraces": 5912,
      "viend": 5913,
      "Ġaspect": 5914,
      "Ġ%)": 5915,
      "angle": 5916,
      "ronic": 5917,
      "Ġ1939": 5918,
      "Ġajou": 5919,
      "Ġordonne": 5920,
      "Ġitalien": 5921,
      "Ġurbaine": 5922,
      "cyclope": 5923,
      "ensive": 5924,
      "ĠMichael": 5925,
      "ban": 5926,
      "coss": 5927,
      "pens": 5928,
      "rons": 5929,
      "yre": 5930,
      "Ġusage": 5931,
      "Ġbandes": 5932,
      "Ġglace": 5933,
      "Ġgolfe": 5934,
      "partements": 5935,
      "loge": 5936,
      "Ġactes": 5937,
      "Ġperform": 5938,
      "ricite": 5939,
      "Ġrenv": 5940,
      "Ġpartiellement": 5941,
      "Ġ1973": 5942,
      "Ġdirecte": 5943,
      "Ġhommage": 5944,
      "Ġsignale": 5945,
      "urban": 5946,
      "Ġmythe": 5947,
      "Ġcirculation": 5948,
      "Ġinstrument": 5949,
      "instar": 5950,
      "tiquite": 5951,
      "Malgre": 5952,
      "Ġquestions": 5953,
      "Ġartificie": 5954,
      "83": 5955,
      "99": 5956,
      "Ġlou": 5957,
      "chers": 5958,
      "tages": 5959,
      "ĠSand": 5960,
      "icon": 5961,
      "Ġcompos": 5962,
      "ĠWi": 5963,
      "ĠWood": 5964,
      "thodes": 5965,
      "illons": 5966,
      "Ġocca": 5967,
      "Ġsuivantes": 5968,
      "Ġdessins": 5969,
      "Ġchangements": 5970,
      "Ġacheve": 5971,
      "Ġsyndic": 5972,
      "ĠJustin": 5973,
      "Ġgalerie": 5974,
      "Ġcopie": 5975,
      "Baptiste": 5976,
      "fendre": 5977,
      "gues": 5978,
      "hn": 5979,
      "iale": 5980,
      "naux": 5981,
      "quoi": 5982,
      "Ġlabor": 5983,
      "quemment": 5984,
      "Ġreje": 5985,
      "Ġvul": 5986,
      "tale": 5987,
      "ĠMac": 5988,
      "Ġanime": 5989,
      "chets": 5990,
      "ĠWest": 5991,
      "autorite": 5992,
      "issait": 5993,
      "Ġrestes": 5994,
      "ĠCarc": 5995,
      "Ġsubit": 5996,
      "har": 5997,
      "var": 5998,
      "Ġeau": 5999,
      "Ġemble": 6000,
      "ramique": 6001,
      "ĠCity": 6002,
      "Ġconven": 6003,
      "ĠTor": 6004,
      "ical": 6005,
      "Ġmoi": 6006,
      "Ġmotiv": 6007,
      "ott": 6008,
      "Ġrose": 6009,
      "Ġastron": 6010,
      "Ġapprend": 6011,
      "Ġcantine": 6012,
      "Ġdomicile": 6013,
      "Ġrelative": 6014,
      "Ġculturelle": 6015,
      "Ġdevenue": 6016,
      "Ġmorale": 6017,
      "ollum": 6018,
      "Ġbombardi": 6019,
      "Ġformations": 6020,
      "ĠIVe": 6021,
      "Ġrecensement": 6022,
      "47": 6023,
      "fle": 6024,
      "rey": 6025,
      "arabe": 6026,
      "Ġtar": 6027,
      "ĠBelle": 6028,
      "ĠTunis": 6029,
      "uber": 6030,
      "oirs": 6031,
      "ĠMary": 6032,
      "Entre": 6033,
      "Ġinst": 6034,
      "Deux": 6035,
      "Ġnavig": 6036,
      "Ġseules": 6037,
      "Ġtransports": 6038,
      "Ġactuel": 6039,
      "Ġofficiers": 6040,
      "novation": 6041,
      "Ġprisonniers": 6042,
      "automne": 6043,
      "tan": 6044,
      "Ġlour": 6045,
      "ouille": 6046,
      "ĠLille": 6047,
      "auf": 6048,
      "resser": 6049,
      "Ġhon": 6050,
      "istres": 6051,
      "ĠChristian": 6052,
      "Ġplaque": 6053,
      "ĠOsiris": 6054,
      "Ġanneaux": 6055,
      "Ġonze": 6056,
      "ĠPeter": 6057,
      "Ġcourses": 6058,
      "Ġfondateur": 6059,
      "Ġattend": 6060,
      "accomp": 6061,
      "Ġtempor": 6062,
      "tranger": 6063,
      "Ġfavorise": 6064,
      "Ġillustra": 6065,
      "vidence": 6066,
      "Ġrecevoir": 6067,
      "Ġcathe": 6068,
      "Ġchiffre": 6069,
      "Ġvraiment": 6070,
      "Ġalterna": 6071,
      "57": 6072,
      "ss": 6073,
      "Ġciel": 6074,
      "era": 6075,
      "Ġjamb": 6076,
      "ternes": 6077,
      "Ġsurp": 6078,
      "ĠTex": 6079,
      "thur": 6080,
      "Ġjournaux": 6081,
      "Ġviande": 6082,
      "berge": 6083,
      "Ġtraitement": 6084,
      "Ġespaces": 6085,
      "Ġgravitation": 6086,
      "Ġenvirons": 6087,
      "44": 6088,
      "Certa": 6089,
      "ES": 6090,
      "dac": 6091,
      "rille": 6092,
      "uter": 6093,
      "yo": 6094,
      "inage": 6095,
      "sept": 6096,
      "ĠSpe": 6097,
      "range": 6098,
      "ĠRay": 6099,
      "mber": 6100,
      "ĠJour": 6101,
      "Ġarbit": 6102,
      "Ġ42": 6103,
      "idite": 6104,
      "former": 6105,
      "gionale": 6106,
      "Angers": 6107,
      "isses": 6108,
      "ĠPetit": 6109,
      "Ġfacilite": 6110,
      "Ġ1937": 6111,
      "Ġorganisation": 6112,
      "thel": 6113,
      "Ġmaintenir": 6114,
      "Ġpouvoirs": 6115,
      "Ġ1880": 6116,
      "Ġfavorable": 6117,
      "Ġfoule": 6118,
      "Ġaugmentation": 6119,
      "instrument": 6120,
      "41": 6121,
      "Du": 6122,
      "bas": 6123,
      "hen": 6124,
      "Ìĥ": 6125,
      "article": 6126,
      "cemment": 6127,
      "Ġrugby": 6128,
      "apper": 6129,
      "ĠWil": 6130,
      "extre": 6131,
      "Ġcolonnes": 6132,
      "Ġtouristique": 6133,
      "Ġconfiance": 6134,
      "Ġroutes": 6135,
      "Ġsauf": 6136,
      "Ġhumain": 6137,
      "ĠQuant": 6138,
      "Ġretourne": 6139,
      "Ġtemples": 6140,
      "Ġrevenir": 6141,
      "torique": 6142,
      "Ġalbums": 6143,
      "hommes": 6144,
      "ĠProst": 6145,
      "88": 6146,
      "Durant": 6147,
      "burg": 6148,
      "hin": 6149,
      "uz": 6150,
      "inion": 6151,
      "arbit": 6152,
      "usine": 6153,
      "ĠLong": 6154,
      "chal": 6155,
      "tails": 6156,
      "ĠMans": 6157,
      "ĠAikman": 6158,
      "lim": 6159,
      "Ġhistoires": 6160,
      "ĠFootball": 6161,
      "ultes": 6162,
      "Ġbaie": 6163,
      "lange": 6164,
      "Ġcapable": 6165,
      "Ġvoitures": 6166,
      "...)": 6167,
      "Ġ1929": 6168,
      "migre": 6169,
      "Ġjaponaise": 6170,
      "Ġcontenu": 6171,
      "olkien": 6172,
      "ĠWhite": 6173,
      "ĠMexique": 6174,
      "den": 6175,
      "ilie": 6176,
      "ĠLut": 6177,
      "Ġnot": 6178,
      "ĠPic": 6179,
      "Ġplonge": 6180,
      "ago": 6181,
      "ĠJones": 6182,
      "ello": 6183,
      "Ġtreize": 6184,
      "Ġ75": 6185,
      "ckendorf": 6186,
      "illage": 6187,
      "Ġferro": 6188,
      "Arme": 6189,
      "Ġpuits": 6190,
      "cessaires": 6191,
      "Ġadaptation": 6192,
      "ictionnaire": 6193,
      "tissements": 6194,
      "Ġuniversitaire": 6195,
      "Ġconstate": 6196,
      "Jac": 6197,
      "comm": 6198,
      "ionne": 6199,
      "ji": 6200,
      "Ġrois": 6201,
      "Ġcoi": 6202,
      "net": 6203,
      "ĠMort": 6204,
      "Ġpourraient": 6205,
      "ĠBor": 6206,
      "Ġchristian": 6207,
      "ĠRes": 6208,
      "ĠGro": 6209,
      "amme": 6210,
      "Ġconscience": 6211,
      "Ġarbres": 6212,
      "cution": 6213,
      "existe": 6214,
      "Ġcourts": 6215,
      "Ancien": 6216,
      "Ġ1952": 6217,
      "Ġsociaux": 6218,
      "Ġrendu": 6219,
      "Ġsixie": 6220,
      "Ġvraise": 6221,
      "Ġvaleurs": 6222,
      "Ġdomination": 6223,
      "Ġinstruments": 6224,
      "Ġcandidat": 6225,
      "Ġpauvre": 6226,
      "ĠVoynich": 6227,
      "lizabeth": 6228,
      "Ġferrovi": 6229,
      "94": 6230,
      "Capitale": 6231,
      "van": 6232,
      "Ġpon": 6233,
      "itz": 6234,
      "itan": 6235,
      "Ġenque": 6236,
      "Ġvice": 6237,
      "Ġbol": 6238,
      "lif": 6239,
      "ĠRC": 6240,
      "Ġcommiss": 6241,
      "Ġressemb": 6242,
      "intro": 6243,
      "And": 6244,
      "Ġ1921": 6245,
      "Ġgrecs": 6246,
      "Cependant": 6247,
      "oureux": 6248,
      "Ġmanifeste": 6249,
      "Ġsingle": 6250,
      "AJA": 6251,
      "bou": 6252,
      "goci": 6253,
      "nd": 6254,
      "tus": 6255,
      "ret": 6256,
      "Ġpic": 6257,
      "Ġmorte": 6258,
      "Ġdescription": 6259,
      "ĠMy": 6260,
      "ĠAm": 6261,
      "ĠBle": 6262,
      "ĠTamb": 6263,
      "ĠNauru": 6264,
      "Ġexige": 6265,
      "obtenir": 6266,
      "avent": 6267,
      "avie": 6268,
      "ubles": 6269,
      "oty": 6270,
      "Ġclasses": 6271,
      "ographe": 6272,
      "Ġ1934": 6273,
      "Ġbouche": 6274,
      "sifs": 6275,
      "Ġ1910": 6276,
      "ĠChambourg": 6277,
      "Ġremarquable": 6278,
      "Ġagricoles": 6279,
      "Osiris": 6280,
      "SS": 6281,
      "cart": 6282,
      "lance": 6283,
      "pide": 6284,
      "Ġpure": 6285,
      "Ġpseud": 6286,
      "Ġsolution": 6287,
      "Ġciter": 6288,
      "uru": 6289,
      "Ġflu": 6290,
      "Ġvague": 6291,
      "ĠMet": 6292,
      "ĠBa": 6293,
      "Ġmetal": 6294,
      "Ġ2020": 6295,
      "ĠWat": 6296,
      "ĠWittgenstein": 6297,
      "Ġmonop": 6298,
      "Ġrecom": 6299,
      "Ġinscrits": 6300,
      "Ġrepas": 6301,
      "Antiquite": 6302,
      "Ġlongues": 6303,
      "renti": 6304,
      "outent": 6305,
      "Ġconcours": 6306,
      "Ġjouent": 6307,
      "animal": 6308,
      "Ġreconstruction": 6309,
      "Ġexistent": 6310,
      "Ġmaximum": 6311,
      "Ġconservation": 6312,
      "exemple": 6313,
      "ĠBlack": 6314,
      "Ġconcurrence": 6315,
      "Ġremplacer": 6316,
      "Ġchaleur": 6317,
      "fugie": 6318,
      "jon": 6319,
      "yde": 6320,
      "Ġom": 6321,
      "enregistre": 6322,
      "Ġaustra": 6323,
      "ray": 6324,
      "user": 6325,
      "chy": 6326,
      "ĠMur": 6327,
      "alerie": 6328,
      "ĠGollum": 6329,
      "ĠChin": 6330,
      "trage": 6331,
      "ignon": 6332,
      "vasion": 6333,
      "Ġproductions": 6334,
      "Ġsuivent": 6335,
      "Ġ1961": 6336,
      "Ġmener": 6337,
      "ographiques": 6338,
      "Ġfonds": 6339,
      "Ġtenue": 6340,
      "Ġpassagers": 6341,
      "Ġdonnant": 6342,
      "Ġrelief": 6343,
      "Ġcitoy": 6344,
      "Ġdomestique": 6345,
      "ĠDivision": 6346,
      "ĠCompagnie": 6347,
      "cente": 6348,
      "oncer": 6349,
      "Ġpav": 6350,
      "ani": 6351,
      "tell": 6352,
      "initi": 6353,
      "Ġremise": 6354,
      "veux": 6355,
      "ĠLang": 6356,
      "Ġbran": 6357,
      "aspect": 6358,
      "Ġgym": 6359,
      "attention": 6360,
      "Ġchante": 6361,
      "Ġ1900": 6362,
      "ĠFord": 6363,
      "ĠChris": 6364,
      "exer": 6365,
      "tils": 6366,
      "illy": 6367,
      "vateur": 6368,
      "Ġ160": 6369,
      "Ġpaque": 6370,
      "archi": 6371,
      "Ġpluie": 6372,
      "Ġfonctionnement": 6373,
      "Ġ1896": 6374,
      "Ġbiais": 6375,
      "ĠLorsque": 6376,
      "Ġcompagnies": 6377,
      "Ġsymbolique": 6378,
      "ĠAuxerre": 6379,
      "Ìĩ": 6380,
      "tirer": 6381,
      "omes": 6382,
      "itement": 6383,
      "ĠMrs": 6384,
      "Ġinge": 6385,
      "Ġsurnomme": 6386,
      "Ġoub": 6387,
      "ĠTru": 6388,
      "Ġassiste": 6389,
      "Ġdevint": 6390,
      "ysse": 6391,
      "Ġwe": 6392,
      "ĠConstitution": 6393,
      "Ġactuelle": 6394,
      "Ġtraditionnelle": 6395,
      "ĠStrasbourg": 6396,
      "rastructures": 6397,
      "Athe": 6398,
      "hir": 6399,
      "long": 6400,
      "quit": 6401,
      "rad": 6402,
      "uns": 6403,
      "agent": 6404,
      "andon": 6405,
      "poir": 6406,
      "ĠVienne": 6407,
      "ductions": 6408,
      "Ġseraient": 6409,
      "Ġtitu": 6410,
      "Ġcoups": 6411,
      "Ġconfir": 6412,
      "Ġ1969": 6413,
      "Ġrendent": 6414,
      "Ġtrophe": 6415,
      "Ġclarinettes": 6416,
      "effond": 6417,
      "Ġlibres": 6418,
      "Ġresponsables": 6419,
      "ĠAssociation": 6420,
      "Ġrichesse": 6421,
      "ĠÃĹ": 6422,
      "Ġsculpte": 6423,
      "ĠXIVe": 6424,
      "ĠBordeaux": 6425,
      "Australie": 6426,
      "Pendant": 6427,
      "drale": 6428,
      "pand": 6429,
      "plic": 6430,
      "romp": 6431,
      "information": 6432,
      "Ġentier": 6433,
      "Ġtoile": 6434,
      "Ġremis": 6435,
      "rol": 6436,
      "Ġdue": 6437,
      "sier": 6438,
      "sias": 6439,
      "taine": 6440,
      "olis": 6441,
      "Ġgarc": 6442,
      "Ġplante": 6443,
      "dier": 6444,
      "ĠTolkien": 6445,
      "Ġexternes": 6446,
      "Ġdiplo": 6447,
      "Ġ36": 6448,
      "vide": 6449,
      "Ġpole": 6450,
      "exe": 6451,
      "Ġ48": 6452,
      "Ġservi": 6453,
      "assonne": 6454,
      "Ġprofite": 6455,
      "mark": 6456,
      "Ġgouverneur": 6457,
      "ĠZe": 6458,
      "lymp": 6459,
      "duisant": 6460,
      "enfant": 6461,
      "Ġcatholiques": 6462,
      "Ġquinze": 6463,
      "Ġfacilement": 6464,
      "Notes": 6465,
      "gend": 6466,
      "mans": 6467,
      "ny": 6468,
      "sang": 6469,
      "Ġaf": 6470,
      "champ": 6471,
      "Ġbanc": 6472,
      "ciale": 6473,
      "âĢ²": 6474,
      "Ġhame": 6475,
      "ĠGl": 6476,
      "ocle": 6477,
      "oises": 6478,
      "Ġtraits": 6479,
      "oges": 6480,
      "Ġobje": 6481,
      "Ġoblig": 6482,
      "Ġ1947": 6483,
      "Ġchampions": 6484,
      "Augus": 6485,
      "national": 6486,
      "ĠIIIe": 6487,
      "Ġentreprise": 6488,
      "Ġdirigeants": 6489,
      "ĠForce": 6490,
      "Ġimpossible": 6491,
      "Ġcouverte": 6492,
      "ĠBobet": 6493,
      "Ġpeuples": 6494,
      "Jacques": 6495,
      ".).": 6496,
      "43": 6497,
      "Denis": 6498,
      "ivement": 6499,
      "pert": 6500,
      "ener": 6501,
      "Ġai": 6502,
      "lay": 6503,
      "ĠPers": 6504,
      "aissant": 6505,
      "enceinte": 6506,
      "tume": 6507,
      "ado": 6508,
      "Ġfinal": 6509,
      "cules": 6510,
      "ĠMarne": 6511,
      "Ġ1971": 6512,
      "Ġsauvages": 6513,
      "affaire": 6514,
      "Ġdisparai": 6515,
      "comme": 6516,
      "cieux": 6517,
      "hy": 6518,
      "ipp": 6519,
      "lons": 6520,
      "Ġdange": 6521,
      "Ġlancer": 6522,
      "Ġsoleil": 6523,
      "Ġempereur": 6524,
      "quante": 6525,
      "urie": 6526,
      "Ġenva": 6527,
      "ĠAdam": 6528,
      "Ġchant": 6529,
      "diques": 6530,
      "oste": 6531,
      "ĠTche": 6532,
      "ĠTim": 6533,
      "ouss": 6534,
      "ĠNantes": 6535,
      "iente": 6536,
      "luant": 6537,
      "Ġboulev": 6538,
      "nieur": 6539,
      "Ġprobable": 6540,
      "Ġstock": 6541,
      "decine": 6542,
      "decins": 6543,
      "Ġendommage": 6544,
      "Ġdivinite": 6545,
      "paisseur": 6546,
      "ĠRacing": 6547,
      "Ġspirit": 6548,
      "Alex": 6549,
      "Ex": 6550,
      "atif": 6551,
      "tante": 6552,
      "Ġliens": 6553,
      "ories": 6554,
      "Ġfusion": 6555,
      "Ġquai": 6556,
      "ĠFab": 6557,
      "ĠHu": 6558,
      "inspire": 6559,
      "Ġtraditions": 6560,
      "ĠVen": 6561,
      "tiquement": 6562,
      "Ġactive": 6563,
      "Ġaccident": 6564,
      "anglais": 6565,
      "Andre": 6566,
      "Ġtransformation": 6567,
      "Ġpublicite": 6568,
      "Ġporcela": 6569,
      "Ġsuccesseur": 6570,
      "couvertes": 6571,
      "Ġbyzantine": 6572,
      "Ġcontrairement": 6573,
      "ĠXIIIe": 6574,
      "Ġquotidien": 6575,
      "Ġdestination": 6576,
      "Ġclairement": 6577,
      "Ġfabrication": 6578,
      "plan": 6579,
      "Ġ.": 6580,
      "Ġtaure": 6581,
      "Ġparta": 6582,
      "riphe": 6583,
      "ĠBat": 6584,
      "Ġ1919": 6585,
      "Ġhie": 6586,
      "ulent": 6587,
      "tesse": 6588,
      "Ġsame": 6589,
      "),.": 6590,
      "Ġmarais": 6591,
      "Ġcaroling": 6592,
      "Ġpost": 6593,
      "Ġobjectif": 6594,
      "Ġadop": 6595,
      "moigne": 6596,
      "Ġdevrait": 6597,
      "Ġ1949": 6598,
      "Ġclassiques": 6599,
      "Ġpouvaient": 6600,
      "rash": 6601,
      "Ġtenir": 6602,
      "lectricite": 6603,
      "Ġcalend": 6604,
      "Ġmyste": 6605,
      "barque": 6606,
      "Ġnoblesse": 6607,
      "Ġprospe": 6608,
      "ĠPopov": 6609,
      "Ġinstitutions": 6610,
      "Mais": 6611,
      "UR": 6612,
      "rest": 6613,
      "uation": 6614,
      "Ĩthel": 6615,
      "Ġlune": 6616,
      "Ġcouv": 6617,
      "erlandais": 6618,
      "ila": 6619,
      "alie": 6620,
      "alors": 6621,
      "chai": 6622,
      "astre": 6623,
      "olith": 6624,
      "ĠGrou": 6625,
      "Ġsupre": 6626,
      "ĠHouse": 6627,
      "Ġray": 6628,
      "Ġrarement": 6629,
      "Ġcontribu": 6630,
      "Ġcoe": 6631,
      "Ġconclut": 6632,
      "Ġprati": 6633,
      "lectriques": 6634,
      "Ġsupporter": 6635,
      "ĠMalte": 6636,
      "ĠMontre": 6637,
      "Ġrevue": 6638,
      "ĠPacifique": 6639,
      "Ġchantier": 6640,
      "Ġissues": 6641,
      "Ġbureau": 6642,
      "couvrir": 6643,
      "Ġorthod": 6644,
      "Henri": 6645,
      "ĠTambay": 6646,
      "95": 6647,
      "pa": 6648,
      "pan": 6649,
      "veu": 6650,
      "ĠCA": 6651,
      "peur": 6652,
      "Ġgro": 6653,
      "ĠMes": 6654,
      "Ġprogre": 6655,
      "truire": 6656,
      "ĠKer": 6657,
      "Ġservent": 6658,
      "Ġapplique": 6659,
      "Ġvisant": 6660,
      "Ġconcent": 6661,
      "Ġexemples": 6662,
      "Ġpapier": 6663,
      "Ġsacrif": 6664,
      "ĠVersailles": 6665,
      "Ġdisponibles": 6666,
      "ĠEnfers": 6667,
      "ĠJustinien": 6668,
      "Ìģ)": 6669,
      "Ġcouverture": 6670,
      "rables": 6671,
      "Ġtardi": 6672,
      "Ġbons": 6673,
      "Ġballon": 6674,
      "ĠStudi": 6675,
      "ĠAvant": 6676,
      "ĠBert": 6677,
      "Ġtronc": 6678,
      "ĠWash": 6679,
      "oto": 6680,
      "Ġpoche": 6681,
      "tish": 6682,
      "Ġinterdit": 6683,
      "Ġveille": 6684,
      "crivant": 6685,
      "Ġcamps": 6686,
      "Ġcontinuer": 6687,
      "Ġparticuliers": 6688,
      "oks": 6689,
      "Ġvenant": 6690,
      "moignages": 6691,
      "Ġfournit": 6692,
      "Ġmorceaux": 6693,
      "Charles": 6694,
      "Ġceinture": 6695,
      "Ġhuitie": 6696,
      "ĠJournal": 6697,
      "Elle": 6698,
      "icien": 6699,
      "ring": 6700,
      "sol": 6701,
      "Ġlabel": 6702,
      "ĠAra": 6703,
      "ĠBros": 6704,
      "ĠLet": 6705,
      "oppose": 6706,
      "ĠHall": 6707,
      "Ġperpe": 6708,
      "phen": 6709,
      "Ġcolonne": 6710,
      "rone": 6711,
      "crites": 6712,
      "Ġretard": 6713,
      "Ġcollections": 6714,
      "Ġ1911": 6715,
      "Ġ1851": 6716,
      "Ġchoisit": 6717,
      "Ġprenant": 6718,
      "Ġprovenance": 6719,
      "zzle": 6720,
      "Ġtissu": 6721,
      "Ġgardien": 6722,
      "Avant": 6723,
      "pult": 6724,
      "Ġdel": 6725,
      "omo": 6726,
      "Ġduche": 6727,
      "Ġparviennent": 6728,
      "cht": 6729,
      "ĠSlovaquie": 6730,
      "ĠAli": 6731,
      "Ġint": 6732,
      "Ġpropositions": 6733,
      "dici": 6734,
      "abbe": 6735,
      "ĠLaur": 6736,
      "ritage": 6737,
      "Ġmarie": 6738,
      "Ġcommuniste": 6739,
      "Ġaccuse": 6740,
      "Ġpopularite": 6741,
      "Ġintelle": 6742,
      "ather": 6743,
      "Ġannuel": 6744,
      "Ġdimensions": 6745,
      "Ġateliers": 6746,
      "Ġaccessible": 6747,
      "Ġquatorze": 6748,
      "ĠLuther": 6749,
      "],": 6750,
      "ko": 6751,
      "ket": 6752,
      "vite": 6753,
      "voc": 6754,
      "Ġsainte": 6755,
      "quation": 6756,
      "lem": 6757,
      "Ġmit": 6758,
      "illas": 6759,
      "raits": 6760,
      "rov": 6761,
      "roy": 6762,
      "Ġvases": 6763,
      "Ġboi": 6764,
      "Ġbaptise": 6765,
      "ĠMat": 6766,
      "ĠEuge": 6767,
      "avion": 6768,
      "sume": 6769,
      "Ġexpli": 6770,
      "Ġassist": 6771,
      "ĠRoderick": 6772,
      "olly": 6773,
      "environnement": 6774,
      "Ġponts": 6775,
      "Ġdrapeau": 6776,
      "ĠWashington": 6777,
      "42": 6778,
      "cop": 6779,
      "hie": 6780,
      "port": 6781,
      "sou": 6782,
      "tue": 6783,
      "uff": 6784,
      "xion": 6785,
      "ester": 6786,
      "Ġpur": 6787,
      "Ġeuros": 6788,
      "Ġcomposi": 6789,
      "ited": 6790,
      "Ġconce": 6791,
      "cient": 6792,
      "ciation": 6793,
      "ĠTrans": 6794,
      "ĠCham": 6795,
      "manie": 6796,
      "Ġattra": 6797,
      "Ġadultes": 6798,
      "Ġconflits": 6799,
      "Ġpropag": 6800,
      "Ġappartenant": 6801,
      "Ġ1956": 6802,
      "Ġentame": 6803,
      "Ġfortune": 6804,
      "alisateur": 6805,
      "alimentation": 6806,
      "astron": 6807,
      "ĠCertaines": 6808,
      "Ġmajoritairement": 6809,
      "Ġadversaires": 6810,
      "ĠUniversity": 6811,
      "Ġdiploma": 6812,
      "Ġtramway": 6813,
      "Ġbolche": 6814,
      "flex": 6815,
      "huit": 6816,
      "mins": 6817,
      "wards": 6818,
      "Ġlu": 6819,
      "Ġaient": 6820,
      "tels": 6821,
      "Ġfene": 6822,
      "meyer": 6823,
      "ĠCla": 6824,
      "ressions": 6825,
      "ĠDire": 6826,
      "Ġsatell": 6827,
      "Ġrames": 6828,
      "airement": 6829,
      "ensis": 6830,
      "ifie": 6831,
      "Ġsphe": 6832,
      "Ġefforts": 6833,
      "Ġconcerts": 6834,
      "Ġfortes": 6835,
      "Ġrevenu": 6836,
      "Ġretrait": 6837,
      "terminer": 6838,
      "Ġtrouvait": 6839,
      "quiert": 6840,
      "quivalent": 6841,
      "ĠCalifornie": 6842,
      "Ab": 6843,
      "ed": 6844,
      "fun": 6845,
      "hypothe": 6846,
      "Ġlourd": 6847,
      "erbe": 6848,
      "Ġtort": 6849,
      "Ġreine": 6850,
      "ĠLivre": 6851,
      "sement": 6852,
      "chappe": 6853,
      "ĠMass": 6854,
      "ĠMath": 6855,
      "ĠAlain": 6856,
      "ĠFes": 6857,
      "Ġrache": 6858,
      "uma": 6859,
      "phie": 6860,
      "ĠUl": 6861,
      "Ġcole": 6862,
      "assurer": 6863,
      "Ġ1928": 6864,
      "iversaire": 6865,
      "Ġ1905": 6866,
      "finitive": 6867,
      "Ġfranchise": 6868,
      "Ġvraisemblable": 6869,
      "Ph": 6870,
      "nest": 6871,
      "Ġpanne": 6872,
      "erc": 6873,
      "arti": 6874,
      "Ġtor": 6875,
      "Ġtun": 6876,
      "rion": 6877,
      "riences": 6878,
      "ĠMay": 6879,
      "ĠBour": 6880,
      "ĠBoe": 6881,
      "Ġinse": 6882,
      "Ġradic": 6883,
      "Ġmoines": 6884,
      "Ġ33": 6885,
      "Ġdiscre": 6886,
      "Ġnotion": 6887,
      "ĠParlement": 6888,
      "Ġrespect": 6889,
      "Ġorbite": 6890,
      "Ġversant": 6891,
      "ĠCharle": 6892,
      "Ġcrite": 6893,
      "Ġcomplet": 6894,
      "Ġcivils": 6895,
      "Ġstand": 6896,
      "Ġviaduc": 6897,
      "gories": 6898,
      "Ġpenser": 6899,
      "Ġguide": 6900,
      "97": 6901,
      "gociations": 6902,
      "enal": 6903,
      "oni": 6904,
      "Ġsoix": 6905,
      "Ġremet": 6906,
      "Ġnations": 6907,
      "Ġvende": 6908,
      "Ġbless": 6909,
      "ĠBru": 6910,
      "osla": 6911,
      "rieux": 6912,
      "instal": 6913,
      "umine": 6914,
      "amphithe": 6915,
      "tilite": 6916,
      "Ġcoord": 6917,
      "Ġsoutenu": 6918,
      "Ġobe": 6919,
      "190": 6920,
      "luent": 6921,
      "Ġ1981": 6922,
      "troit": 6923,
      "ĠThierry": 6924,
      "centes": 6925,
      "ĠStan": 6926,
      "ĠPhil": 6927,
      "cisions": 6928,
      "Ġmorceau": 6929,
      "Ġirre": 6930,
      "Ġchronique": 6931,
      "Ġmosai": 6932,
      "Ġcitoyens": 6933,
      "enant": 6934,
      "Ġcouvent": 6935,
      "Ġfal": 6936,
      "omer": 6937,
      "Ġencourage": 6938,
      "Ġtaur": 6939,
      "ĠLos": 6940,
      "ĠLloyd": 6941,
      "ĠSpar": 6942,
      "lia": 6943,
      "ĠToul": 6944,
      "mbert": 6945,
      "ĠJon": 6946,
      "Ġpassent": 6947,
      "ĠVIe": 6948,
      "loir": 6949,
      "Ġperfor": 6950,
      "ĠCeux": 6951,
      "atelier": 6952,
      "fection": 6953,
      "ĠRed": 6954,
      "Ġinsurge": 6955,
      "illard": 6956,
      "Ġbelle": 6957,
      "Ġabond": 6958,
      "Ġutilisent": 6959,
      "lone": 6960,
      "culture": 6961,
      "odora": 6962,
      "ĠYou": 6963,
      "difices": 6964,
      "Ġboule": 6965,
      "Ġ1912": 6966,
      "sidentielle": 6967,
      "habitants": 6968,
      "Ġissue": 6969,
      "thiopie": 6970,
      "Ġorientale": 6971,
      "ĠLimoges": 6972,
      "Ġarabe": 6973,
      "Ġautomobile": 6974,
      "zzlewit": 6975,
      "Vincent": 6976,
      "bil": 6977,
      "mit": 6978,
      "Ġze": 6979,
      "Ġsab": 6980,
      "anz": 6981,
      "orge": 6982,
      "char": 6983,
      "chestre": 6984,
      "limine": 6985,
      "acts": 6986,
      "ĠGordes": 6987,
      "ardins": 6988,
      "Ġacte": 6989,
      "Ġarc": 6990,
      "Ġpertes": 6991,
      "Ġassi": 6992,
      "ĠMario": 6993,
      "mances": 6994,
      "Ġ170": 6995,
      "Ġprincipes": 6996,
      "cline": 6997,
      "Ġsecondaires": 6998,
      "ĠCommun": 6999,
      "Ġanglo": 7000,
      "Asie": 7001,
      "Ġchevalier": 7002,
      "Ġproportion": 7003,
      "claration": 7004,
      "Ġsouverain": 7005,
      "Ġpoissons": 7006,
      "ĠHongrie": 7007,
      "ĠChuzzlewit": 7008,
      "voit": 7009,
      "Ġlux": 7010,
      "Ġfame": 7011,
      "rog": 7012,
      "ĠLouvre": 7013,
      "ansion": 7014,
      "ĠSqu": 7015,
      "Ġ250": 7016,
      "ĠBase": 7017,
      "ĠRadi": 7018,
      "Ġance": 7019,
      "aves": 7020,
      "Ġtrains": 7021,
      "uble": 7022,
      "duites": 7023,
      "ctoire": 7024,
      "ness": 7025,
      "ĠOli": 7026,
      "ĠXIe": 7027,
      "Ġutilis": 7028,
      "Ġcorre": 7029,
      "Ġverre": 7030,
      "ĠâĢĶ,": 7031,
      "Ġresta": 7032,
      "explique": 7033,
      "Ġrouges": 7034,
      "Ġregistre": 7035,
      "Ġvapeur": 7036,
      "Ġ1924": 7037,
      "Ġfrapp": 7038,
      "Ġfeuilles": 7039,
      "Ġcommenc": 7040,
      "Ġbureaux": 7041,
      "Ġdizaine": 7042,
      "avenue": 7043,
      "Jose": 7044,
      "bdom": 7045,
      "fr": 7046,
      "mages": 7047,
      "vres": 7048,
      "istiques": 7049,
      "Ġmons": 7050,
      "orne": 7051,
      "Ġlecture": 7052,
      "Ġfrom": 7053,
      "vet": 7054,
      "Ġduquel": 7055,
      "Ġvag": 7056,
      "chapper": 7057,
      "ĠCore": 7058,
      "ĠSho": 7059,
      "Ġaven": 7060,
      "adis": 7061,
      "Ġperse": 7062,
      "Ġtir": 7063,
      "Ġtournage": 7064,
      "ralite": 7065,
      "cepti": 7066,
      "Ġpartout": 7067,
      "Ġcalcul": 7068,
      "Ġsignifica": 7069,
      "Ġlogique": 7070,
      "Ġvendu": 7071,
      "Ġrassemb": 7072,
      "ĠAndrews": 7073,
      "Ġsommets": 7074,
      "Ġpotentiel": 7075,
      "Ġprimaire": 7076,
      "Ġmonnaie": 7077,
      "Ġstatues": 7078,
      "Ġoiseaux": 7079,
      "ĠCarcassonne": 7080,
      "Ġperformances": 7081,
      "bdomad": 7082,
      "Es": 7083,
      "Ġsue": 7084,
      "inn": 7085,
      "erv": 7086,
      "Ġmand": 7087,
      "Ġbus": 7088,
      "Ġsemi": 7089,
      "Ġrur": 7090,
      "abel": 7091,
      "imi": 7092,
      "ĠVin": 7093,
      "ĠVierge": 7094,
      "Ġtrompe": 7095,
      "Ġalent": 7096,
      "ĠAntoine": 7097,
      "Ġconstructions": 7098,
      "Ġmontrer": 7099,
      "Ġmissions": 7100,
      "pondre": 7101,
      "Ġattache": 7102,
      "dailles": 7103,
      "ĠMonte": 7104,
      "Ġscolaires": 7105,
      "ĠOsbourne": 7106,
      "compense": 7107,
      "Ġexerce": 7108,
      "Ġdiscipline": 7109,
      "Ġsuffisamment": 7110,
      "Ġclerge": 7111,
      "AC": 7112,
      "Loire": 7113,
      "Open": 7114,
      "atique": 7115,
      "mur": 7116,
      "Ġdic": 7117,
      "Ġcame": 7118,
      "inves": 7119,
      "erland": 7120,
      "estley": 7121,
      "riger": 7122,
      "lam": 7123,
      "ĠPres": 7124,
      "ĠDoc": 7125,
      "dion": 7126,
      "entement": 7127,
      "Ġmonarchie": 7128,
      "Ġnotes": 7129,
      "tenues": 7130,
      "Ġoriente": 7131,
      "Ġminorite": 7132,
      "Argentine": 7133,
      "Ġretrouvent": 7134,
      "Ġinfrastructures": 7135,
      "ĠCommission": 7136,
      "lectron": 7137,
      "ĠMax": 7138,
      "ĠQuatre": 7139,
      "Ġtotalite": 7140,
      "Ġmunicipale": 7141,
      "Ġscand": 7142,
      "Ġprofessionnelle": 7143,
      "Ġrup": 7144,
      "iano": 7145,
      "Ġfleurs": 7146,
      "Ġlimites": 7147,
      "Ġfournir": 7148,
      "Ġarrivent": 7149,
      "Ġdiminu": 7150,
      "Ġauxquels": 7151,
      "Ġinstallations": 7152,
      "istait": 7153,
      "Ġfleur": 7154,
      "usses": 7155,
      "ĠCav": 7156,
      "Ġbonnes": 7157,
      "astes": 7158,
      "ĠBomb": 7159,
      "ĠDer": 7160,
      "ĠGil": 7161,
      "ĠGab": 7162,
      "Ġavons": 7163,
      "ĠChab": 7164,
      "dessous": 7165,
      "phy": 7166,
      "Ġ55": 7167,
      "Ġsolde": 7168,
      "Ġ1959": 7169,
      ",,,.": 7170,
      "arctique": 7171,
      "ĠBarb": 7172,
      "Ġformant": 7173,
      "Ġbrux": 7174,
      "Ġreproduction": 7175,
      "ĠRosemeyer": 7176,
      "Ġcomparaison": 7177,
      "Ġhautes": 7178,
      "Ġulte": 7179,
      "Ġdizaines": 7180,
      "Ġemprunte": 7181,
      "Ġdanse": 7182,
      "Ġsensible": 7183,
      "Ġefficace": 7184,
      "ĠCharlemagne": 7185,
      "TA": 7186,
      "porte": 7187,
      "zaine": 7188,
      "Ġsche": 7189,
      "ĠLink": 7190,
      "liques": 7191,
      "ĠFleur": 7192,
      "heim": 7193,
      "ĠHistor": 7194,
      "Ġalpin": 7195,
      "otan": 7196,
      "Ġperspec": 7197,
      "Ġ%),": 7198,
      "Ġorne": 7199,
      "illance": 7200,
      "Ġsuivie": 7201,
      "ribuer": 7202,
      "Ġincap": 7203,
      "Ġmusiciens": 7204,
      "ĠArn": 7205,
      "Ġparticipent": 7206,
      "Ġdifficiles": 7207,
      "Ġfuite": 7208,
      "Ġcirconst": 7209,
      "Ġmodeste": 7210,
      "Ġbranches": 7211,
      "fo": 7212,
      "lins": 7213,
      "pant": 7214,
      "inique": 7215,
      "ĠClas": 7216,
      "ĠPlan": 7217,
      "abs": 7218,
      "ouvoir": 7219,
      "Ġprison": 7220,
      "Ġcomprendre": 7221,
      "Ġjudici": 7222,
      "Ġcow": 7223,
      "Ġcohe": 7224,
      "Ġcouches": 7225,
      "ĠAnn": 7226,
      "Ġnaturels": 7227,
      "ypri": 7228,
      "igueur": 7229,
      "Ġ1852": 7230,
      "Ġ1848": 7231,
      "Ġcercle": 7232,
      "Ġmeurtre": 7233,
      "Ġinvente": 7234,
      "Ġpatron": 7235,
      "Ġlinguistique": 7236,
      "Ġspatiale": 7237,
      "Ġindividus": 7238,
      "Ġsatisf": 7239,
      "Ġexclusivement": 7240,
      "Ġprovisoire": 7241,
      "cossais": 7242,
      "Histoire": 7243,
      "iap": 7244,
      "pte": 7245,
      "yers": 7246,
      "Ġaile": 7247,
      "Ġvigueur": 7248,
      "ĠAus": 7249,
      "lir": 7250,
      "lius": 7251,
      "lesi": 7252,
      "ĠFra": 7253,
      "ĠFour": 7254,
      "occupe": 7255,
      "partition": 7256,
      "ĠVau": 7257,
      "tines": 7258,
      "ĠCeci": 7259,
      "Ġmilieux": 7260,
      "Ġsoulig": 7261,
      "Ġrig": 7262,
      "Ġphrase": 7263,
      "Ġautoma": 7264,
      "Ġremporter": 7265,
      "anna": 7266,
      "Ġportraits": 7267,
      "Ġ1917": 7268,
      "ystyle": 7269,
      "tendue": 7270,
      "rairement": 7271,
      "Ġfaubourg": 7272,
      "signer": 7273,
      "Ġbateau": 7274,
      "Ġpossession": 7275,
      "sicru": 7276,
      "Ġmicro": 7277,
      "Maur": 7278,
      "Portail": 7279,
      "ots": 7280,
      "wn": 7281,
      "zi": 7282,
      "Ġair": 7283,
      "Ġsaut": 7284,
      "anite": 7285,
      "Ġcouvert": 7286,
      "Ġtranche": 7287,
      "roits": 7288,
      "ĠStre": 7289,
      "Ġjuifs": 7290,
      "ĠBir": 7291,
      "Ġchim": 7292,
      "chet": 7293,
      "thie": 7294,
      "illus": 7295,
      "Ġrende": 7296,
      "Ġrenaissance": 7297,
      "Ġminer": 7298,
      "Ġlongs": 7299,
      "Ġvisibles": 7300,
      "ographies": 7301,
      "ĠIns": 7302,
      "Ġmaintien": 7303,
      "andises": 7304,
      "Ġroyann": 7305,
      "Ġsocialiste": 7306,
      "Ġcentaine": 7307,
      "montre": 7308,
      "Ġforteresse": 7309,
      "essentiel": 7310,
      "ĠScha": 7311,
      "Ġsuccession": 7312,
      "displa": 7313,
      "Ġtentatives": 7314,
      "moignage": 7315,
      "ollett": 7316,
      "ĠPrusse": 7317,
      "ramiques": 7318,
      "Ġperformance": 7319,
      "displaystyle": 7320,
      "Acade": 7321,
      "cinq": 7322,
      "ichel": 7323,
      "mmation": 7324,
      "ova": 7325,
      "rurier": 7326,
      "ski": 7327,
      "taux": 7328,
      "vus": 7329,
      "Ġsanc": 7330,
      "rap": 7331,
      "Ġrejo": 7332,
      "ĠLac": 7333,
      "ĠSans": 7334,
      "Ġpourquoi": 7335,
      "ĠLeague": 7336,
      "ĠHill": 7337,
      "Ġtrait": 7338,
      "Ġsecours": 7339,
      "Ġconnues": 7340,
      "Universite": 7341,
      "Ġassociation": 7342,
      "tablie": 7343,
      "ombat": 7344,
      "Ġ1953": 7345,
      "ĠArthur": 7346,
      "Ġopposition": 7347,
      "quentation": 7348,
      "Ġamateurs": 7349,
      "Ġprogrammes": 7350,
      "Association": 7351,
      "Ġformule": 7352,
      "Ġpoursuivre": 7353,
      "ĠNormand": 7354,
      "Ġcontemporain": 7355,
      "ĠTroy": 7356,
      "Ġhospital": 7357,
      "Ġmassacre": 7358,
      "Ġconnaissances": 7359,
      "Ġnettement": 7360,
      "Ġobjectifs": 7361,
      "ĠToulouse": 7362,
      "aou": 7363,
      "clas": 7364,
      "ellement": 7365,
      "mman": 7366,
      "tang": 7367,
      "reau": 7368,
      "Ġcouvre": 7369,
      "tio": 7370,
      "see": 7371,
      "riennes": 7372,
      "charge": 7373,
      "Ġqueue": 7374,
      "Ġchanger": 7375,
      "Ġindus": 7376,
      "aies": 7377,
      "ĠNar": 7378,
      "Ġmoteurs": 7379,
      "Ġplaine": 7380,
      "ĠOff": 7381,
      "Ġmace": 7382,
      "venue": 7383,
      "ronte": 7384,
      "Ġpaysan": 7385,
      "Ġmathe": 7386,
      "Ġ1957": 7387,
      "Ġnaturelles": 7388,
      "lantation": 7389,
      "itimes": 7390,
      "actuelle": 7391,
      "lectionne": 7392,
      "utiliser": 7393,
      "iscau": 7394,
      "ennies": 7395,
      "Ġprovinces": 7396,
      "Ġcontinuent": 7397,
      "Ġhydro": 7398,
      "commun": 7399,
      "Ġgymn": 7400,
      "Ġcalendrier": 7401,
      "Ze": 7402,
      "ater": 7403,
      "bus": 7404,
      "franc": 7405,
      "guerre": 7406,
      "vins": 7407,
      "Ġign": 7408,
      "tille": 7409,
      "Ġec": 7410,
      "rape": 7411,
      "Ġauton": 7412,
      "changes": 7413,
      "ĠCong": 7414,
      "Ġsembla": 7415,
      "ĠPoe": 7416,
      "ĠBÅĵuf": 7417,
      "Ġsurmonte": 7418,
      "dien": 7419,
      "ĠHaut": 7420,
      "Ġargu": 7421,
      "Ġ58": 7422,
      "Ġcultures": 7423,
      "Ġverte": 7424,
      "Ġcollecte": 7425,
      "ĠCaniap": 7426,
      "ĠHeid": 7427,
      "Ġsynthe": 7428,
      "ĠCompany": 7429,
      "ĠRomains": 7430,
      "Ġintroduit": 7431,
      "Ġdomestiques": 7432,
      "ĠCaniapiscau": 7433,
      "Am": 7434,
      "cennies": 7435,
      "nisme": 7436,
      "sme": 7437,
      "tons": 7438,
      "Ġos": 7439,
      "enz": 7440,
      "Ġpeste": 7441,
      "Ġailes": 7442,
      "Ġfans": 7443,
      "Ġenterre": 7444,
      "Ġtac": 7445,
      "ource": 7446,
      "anta": 7447,
      "Ġvivent": 7448,
      "Ġconforme": 7449,
      "Ġglo": 7450,
      "ĠMos": 7451,
      "Ġchoc": 7452,
      "Ġinquie": 7453,
      "Ġhy": 7454,
      "ĠToy": 7455,
      "ĠGri": 7456,
      "octobre": 7457,
      "ĠNy": 7458,
      "Ġaval": 7459,
      "onnant": 7460,
      "oient": 7461,
      "phes": 7462,
      "Ġimprime": 7463,
      "Ġpossibles": 7464,
      "Ġsoup": 7465,
      "Ġsoutenir": 7466,
      "Ġabrit": 7467,
      "Anjou": 7468,
      "Ġ1951": 7469,
      "Ġconseils": 7470,
      "tudier": 7471,
      "Ġdoig": 7472,
      "Ġsuscite": 7473,
      "Ġmarchandises": 7474,
      "ĠAlexandre": 7475,
      "Ġhausse": 7476,
      "Ġconversion": 7477,
      "archeve": 7478,
      "Atlantique": 7479,
      "Ġmotivation": 7480,
      "hrop": 7481,
      "Ġdore": 7482,
      "Ġpin": 7483,
      "Ġsent": 7484,
      "Ġstu": 7485,
      "Ġsable": 7486,
      "inal": 7487,
      "Ġlatine": 7488,
      "orta": 7489,
      "auph": 7490,
      "ĠSis": 7491,
      "ĠDur": 7492,
      "Ġhal": 7493,
      "Ġravit": 7494,
      "Ġmotifs": 7495,
      "Ġperdre": 7496,
      "Ġsecteurs": 7497,
      "Ġinterme": 7498,
      "assant": 7499,
      "Ġ65": 7500,
      "Ġnationalite": 7501,
      "Ġseptie": 7502,
      "Ġincendie": 7503,
      "Ġsols": 7504,
      "Ġcontraint": 7505,
      "Ġfigurent": 7506,
      "Ġboucle": 7507,
      "Ġmagas": 7508,
      "Ġcorrespondant": 7509,
      "Ġbombes": 7510,
      "Ġtraditionnel": 7511,
      "Ġbombardement": 7512,
      "ĠOutre": 7513,
      "cence": 7514,
      "gale": 7515,
      "pau": 7516,
      "Ġdresse": 7517,
      "escal": 7518,
      "Ġaise": 7519,
      "Ġsignes": 7520,
      "Ġcade": 7521,
      "veille": 7522,
      "ĠLux": 7523,
      "Ġvac": 7524,
      "choue": 7525,
      "ĠRod": 7526,
      "Ġanaly": 7527,
      "ĠGou": 7528,
      "ĠJoe": 7529,
      "ĠHan": 7530,
      "ĠHel": 7531,
      "Ġavis": 7532,
      "low": 7533,
      "Ġaristocra": 7534,
      "Ġrecours": 7535,
      "Ġescla": 7536,
      "mbledon": 7537,
      "lusions": 7538,
      "Ġrepousse": 7539,
      "Antoine": 7540,
      "ĠChambre": 7541,
      "Ġquarante": 7542,
      "Ġconserver": 7543,
      "Ġmeilleures": 7544,
      "Ġparticularite": 7545,
      "Ġ1909": 7546,
      "Ġvenus": 7547,
      "Ġvingtaine": 7548,
      "ĠWalter": 7549,
      "Ġassurer": 7550,
      "faites": 7551,
      "rablement": 7552,
      "Ġmauvaise": 7553,
      "ĠCaen": 7554,
      "Ġterrestre": 7555,
      "Ġlarges": 7556,
      "ĠAngeles": 7557,
      "Ġlaboratoire": 7558,
      "91": 7559,
      "92": 7560,
      "VD": 7561,
      "dir": 7562,
      "Ġfosse": 7563,
      "usta": 7564,
      "ritier": 7565,
      "ĠCass": 7566,
      "Ġgamme": 7567,
      "athe": 7568,
      "unit": 7569,
      "entretien": 7570,
      "Ġmotif": 7571,
      "loque": 7572,
      "Ġactifs": 7573,
      "ĠEnter": 7574,
      "oyers": 7575,
      "extension": 7576,
      "Ġ41": 7577,
      "Ġrespe": 7578,
      "trages": 7579,
      "ther": 7580,
      "Ġdevaient": 7581,
      "Ġ130": 7582,
      "affaires": 7583,
      "Ġdimension": 7584,
      "Ġcorrespondance": 7585,
      "Ġtransporte": 7586,
      "Ġcombattre": 7587,
      "Ġbrut": 7588,
      "Ġoriginal": 7589,
      "ĠJacob": 7590,
      "Ġurbain": 7591,
      "Ġchercheurs": 7592,
      "ĠPortug": 7593,
      "ĠMagazine": 7594,
      "ĠBayonne": 7595,
      "Ġvocation": 7596,
      "rondissement": 7597,
      "Bernard": 7598,
      "ĠRecords": 7599,
      "AM": 7600,
      "GA": 7601,
      "balle": 7602,
      "lure": 7603,
      "vale": 7604,
      "}}": 7605,
      "Ġx": 7606,
      "Ġlanc": 7607,
      "ona": 7608,
      "lad": 7609,
      "ĠSha": 7610,
      "ĠAfrique": 7611,
      "lioration": 7612,
      "ĠRoi": 7613,
      "acteur": 7614,
      "ull": 7615,
      "Ġconteste": 7616,
      "Ġarticles": 7617,
      "ĠKong": 7618,
      "Ġrotation": 7619,
      "emplacement": 7620,
      "Ġapprouve": 7621,
      "Ġvieille": 7622,
      "Ġfermet": 7623,
      "Ġdouce": 7624,
      "ĠThiers": 7625,
      "appui": 7626,
      "Ġanniversaire": 7627,
      "volutionnaire": 7628,
      "partementale": 7629,
      "ĠStephen": 7630,
      "Ġemploi": 7631,
      "ĠPriestley": 7632,
      "Ġfabrique": 7633,
      "Ġmaximale": 7634,
      "ĠAugustin": 7635,
      "Ġpromotion": 7636,
      "ĠWimbledon": 7637,
      "installation": 7638,
      "Ġrupture": 7639,
      "bure": 7640,
      "ial": 7641,
      "kin": 7642,
      "mographique": 7643,
      "tar": 7644,
      "tos": 7645,
      "Ġcents": 7646,
      "issi": 7647,
      "quise": 7648,
      "Ġlate": 7649,
      "aumes": 7650,
      "tagon": 7651,
      "ĠSS": 7652,
      "ĠPet": 7653,
      "Ġgris": 7654,
      "erson": 7655,
      "ĠEsp": 7656,
      "accep": 7657,
      "ĠItal": 7658,
      "ĠIIe": 7659,
      "ĠNick": 7660,
      "immigration": 7661,
      "objectif": 7662,
      "ctal": 7663,
      "Ġressemble": 7664,
      "traction": 7665,
      "Ġtirer": 7666,
      "Ġsoutient": 7667,
      "ulaires": 7668,
      "Ġintervient": 7669,
      "Ġadresse": 7670,
      "ĠAuc": 7671,
      "Ġchamps": 7672,
      "Ġfacteurs": 7673,
      "Ġrefuge": 7674,
      "adies": 7675,
      "ĠBerlin": 7676,
      "ĠChampionn": 7677,
      "ĠGrecs": 7678,
      "Ġcommerciale": 7679,
      "Ġoriginaire": 7680,
      "Ġrenforcer": 7681,
      "ĠTroie": 7682,
      "Ġracc": 7683,
      "Georges": 7684,
      "Ġmusulman": 7685,
      "viendra": 7686,
      "arbitre": 7687,
      "introduction": 7688,
      "enregistrement": 7689,
      "cents": 7690,
      "faces": 7691,
      "miques": 7692,
      "nistes": 7693,
      "sch": 7694,
      "ya": 7695,
      "anes": 7696,
      "lez": 7697,
      "urrection": 7698,
      "ride": 7699,
      "ĠSir": 7700,
      "asy": 7701,
      "ĠDre": 7702,
      "ĠEst": 7703,
      "illets": 7704,
      "ĠFu": 7705,
      "opota": 7706,
      "ĠHo": 7707,
      "ĠHans": 7708,
      "culaire": 7709,
      "Ġplac": 7710,
      "venus": 7711,
      "Ġmontant": 7712,
      "Ġtransf": 7713,
      "ventaire": 7714,
      "Ġaura": 7715,
      "Ġcombin": 7716,
      "Ġlargeur": 7717,
      "Ġ1867": 7718,
      "intervention": 7719,
      "Ġprogrammation": 7720,
      "Ġspectacles": 7721,
      "Ġtentent": 7722,
      "Ġindustriel": 7723,
      "Ġmarchands": 7724,
      "ĠVictoria": 7725,
      "Ġnobles": 7726,
      "cialistes": 7727,
      "Ġclair": 7728,
      "adaptation": 7729,
      "Ġaventures": 7730,
      "Ġbombardiers": 7731,
      "ĠHeidfeld": 7732,
      "ctivite": 7733,
      "worth": 7734,
      "Ġsoire": 7735,
      "questre": 7736,
      "inverse": 7737,
      "Ġflor": 7738,
      "esta": 7739,
      "estes": 7740,
      "ĠLar": 7741,
      "ĠLie": 7742,
      "ĠLune": 7743,
      "Ġaudi": 7744,
      "chage": 7745,
      "ĠCroix": 7746,
      "Ġuniversite": 7747,
      "Ġgu": 7748,
      "Ġproch": 7749,
      "ĠDr": 7750,
      "ĠElizabeth": 7751,
      "aib": 7752,
      "ĠFront": 7753,
      "Ġpeau": 7754,
      "heur": 7755,
      "ĠJan": 7756,
      "entrep": 7757,
      "inspiration": 7758,
      "Ġmaritimes": 7759,
      "Ġfaites": 7760,
      "ĠXe": 7761,
      "Ġestim": 7762,
      "aret": 7763,
      "chester": 7764,
      "Ġbeaute": 7765,
      "Ġgras": 7766,
      "coule": 7767,
      "Ġrappro": 7768,
      "Ġ1936": 7769,
      "Ġvoile": 7770,
      "interme": 7771,
      "urgence": 7772,
      "Outre": 7773,
      "Ġcommencer": 7774,
      "Ġdiversite": 7775,
      "Ġproportionnelle": 7776,
      "installer": 7777,
      "Ġfragments": 7778,
      "Ġpartenariat": 7779,
      "observation": 7780,
      "initiative": 7781,
      "ĠNormandie": 7782,
      "93": 7783,
      "back": 7784,
      "lines": 7785,
      "rard": 7786,
      "Ġaime": 7787,
      "Ġreleve": 7788,
      "Ġretenu": 7789,
      "sir": 7790,
      "taille": 7791,
      "Ġgri": 7792,
      "Ġguit": 7793,
      "Ġchap": 7794,
      "ĠRho": 7795,
      "Ġsuisse": 7796,
      "Ġram": 7797,
      "avril": 7798,
      "tifications": 7799,
      "Ġ46": 7800,
      "minine": 7801,
      "Ġobs": 7802,
      "Ġathe": 7803,
      "Ġadoles": 7804,
      "Ġrepos": 7805,
      "Ġbec": 7806,
      "marin": 7807,
      "ĠArt": 7808,
      "Ġtenant": 7809,
      "Ġannuelle": 7810,
      "partemental": 7811,
      "Ġbarb": 7812,
      "Ġpromen": 7813,
      "Ġquasiment": 7814,
      "Ġremplac": 7815,
      "orgiques": 7816,
      "Ġgarder": 7817,
      "Ġboulevard": 7818,
      "Ġalentours": 7819,
      "46": 7820,
      "MP": 7821,
      "gh": 7822,
      "iro": 7823,
      "lieu": 7824,
      "ãģ": 7825,
      "Ġlecteurs": 7826,
      "ieur": 7827,
      "itlo": 7828,
      "Ġfie": 7829,
      "Ġfine": 7830,
      "Ġremettre": 7831,
      "ĠLom": 7832,
      "Ġchaud": 7833,
      "ĠDun": 7834,
      "ĠTin": 7835,
      "ulf": 7836,
      "opinion": 7837,
      "onnent": 7838,
      "ĠWall": 7839,
      "assade": 7840,
      "Ġphases": 7841,
      "Ġprofond": 7842,
      "ĠQui": 7843,
      "Ġmessage": 7844,
      "Ġsignature": 7845,
      "Ġdevenant": 7846,
      "ĠIsis": 7847,
      "alisent": 7848,
      "Ġfranco": 7849,
      "ĠColle": 7850,
      "Ġchinchilla": 7851,
      "Ġcolonies": 7852,
      "Ġnourris": 7853,
      "thiopiens": 7854,
      "ĠSyste": 7855,
      "ĠBritish": 7856,
      "Ġusines": 7857,
      "Ġsuccessivement": 7858,
      "ĠMickey": 7859,
      "Ġeccle": 7860,
      "aque": 7861,
      "cran": 7862,
      "iation": 7863,
      "kh": 7864,
      "tries": 7865,
      "isions": 7866,
      "ilier": 7867,
      "ĠCode": 7868,
      "ĠFland": 7869,
      "ĠNorth": 7870,
      "Ġrat": 7871,
      "Ġdisper": 7872,
      "Ġ52": 7873,
      "tillon": 7874,
      "Ġcoope": 7875,
      "tatus": 7876,
      "ologies": 7877,
      "empare": 7878,
      "Ġspons": 7879,
      "Ġhabitant": 7880,
      "Ġpassages": 7881,
      "Ġdisposent": 7882,
      "ĠStory": 7883,
      "herbe": 7884,
      "ĠGreen": 7885,
      "Ġarchives": 7886,
      "Ġfavorables": 7887,
      "Ġvendus": 7888,
      "Ġcontenant": 7889,
      "Ġsimilaires": 7890,
      "placement": 7891,
      "ĠLimousin": 7892,
      "Ġminerai": 7893,
      "Bains": 7894,
      "eur": 7895,
      "mou": 7896,
      "mire": 7897,
      "moires": 7898,
      "poration": 7899,
      "trise": 7900,
      "Ġfur": 7901,
      "omique": 7902,
      "ombre": 7903,
      "usqu": 7904,
      "alistes": 7905,
      "ĠLand": 7906,
      "ĠLion": 7907,
      "ĠCant": 7908,
      "ĠSla": 7909,
      "ĠAustralie": 7910,
      "ĠAlesi": 7911,
      "ĠTok": 7912,
      "ĠFort": 7913,
      "Ġnez": 7914,
      "ĠLaurent": 7915,
      "Ġmod": 7916,
      "Ġ47": 7917,
      "Ġconnaissent": 7918,
      "Ġmontrant": 7919,
      "Ġexpliquer": 7920,
      "Ġdevoir": 7921,
      "Ġmaladies": 7922,
      "marins": 7923,
      "Ġmuser": 7924,
      "ĠCarp": 7925,
      "Ġmaintenance": 7926,
      "Ġessai": 7927,
      "astel": 7928,
      "organise": 7929,
      "Ġchinoise": 7930,
      "ĠSecond": 7931,
      "ĠLuci": 7932,
      "Ġendroits": 7933,
      "Ġrecettes": 7934,
      "ĠLife": 7935,
      "ĠService": 7936,
      "ĠMuseum": 7937,
      "Ġcirconscription": 7938,
      "Ġbulle": 7939,
      "ĠDaniel": 7940,
      "Ġhabite": 7941,
      "ĠMelun": 7942,
      "Ġobservations": 7943,
      "Ġmasculin": 7944,
      "orizon": 7945,
      "Claude": 7946,
      "Ġtaureau": 7947,
      "Ġvagues": 7948,
      "Ġfermeture": 7949,
      "Occident": 7950,
      "cans": 7951,
      "hyd": 7952,
      "oque": 7953,
      "vard": 7954,
      "zer": 7955,
      "Ġencad": 7956,
      "Ġvar": 7957,
      "Ġuni": 7958,
      "ĠMai": 7959,
      "ller": 7960,
      "Ġjardins": 7961,
      "ĠRol": 7962,
      "ĠJane": 7963,
      "Laurent": 7964,
      "phon": 7965,
      "ĠParc": 7966,
      "roulent": 7967,
      "ĠUS": 7968,
      "trad": 7969,
      "trait": 7970,
      "finition": 7971,
      "Ġtourner": 7972,
      "Ġabb": 7973,
      "Ġinclus": 7974,
      "Ġtravailleurs": 7975,
      "Ġcinquante": 7976,
      "Ġ1955": 7977,
      "Ġtenter": 7978,
      "Ġ1890": 7979,
      "Ġtaxe": 7980,
      "ruptions": 7981,
      "Ġsecret": 7982,
      "Ġgaran": 7983,
      "Ġsavoy": 7984,
      "Ġpauvres": 7985,
      "ĠXXIe": 7986,
      "Ġparfaitement": 7987,
      "Ġchristianisme": 7988,
      "imiut": 7989,
      "Be": 7990,
      "Liens": 7991,
      "Pre": 7992,
      "bin": 7993,
      "otte": 7994,
      "Ġentra": 7995,
      "Ìģ,.": 7996,
      "Ġagre": 7997,
      "Ġcible": 7998,
      "Ġfaux": 7999,
      "Ġence": 8000,
      "Ġtuer": 8001,
      "antaine": 8002,
      "Ġvaut": 8003,
      "ĠCite": 8004,
      "ĠSimp": 8005,
      "Ġgend": 8006,
      "libe": 8007,
      "ĠBow": 8008,
      "Ġprolong": 8009,
      "ĠDra": 8010,
      "ĠIre": 8011,
      "onnie": 8012,
      "Ġ1850": 8013,
      "Ġcarton": 8014,
      "intrigue": 8015,
      "iento": 8016,
      "Ġproducteur": 8017,
      "Ġridi": 8018,
      "anny": 8019,
      "athie": 8020,
      "Ġviole": 8021,
      "Ġmasque": 8022,
      "sidences": 8023,
      "Ġremplacement": 8024,
      "Ġmajeurs": 8025,
      "Ġsoins": 8026,
      "Ġenseigne": 8027,
      "Ġflux": 8028,
      "Ġcalcaire": 8029,
      "Ġconcentration": 8030,
      "ĠFestival": 8031,
      "Joseph": 8032,
      "Ġhospitalier": 8033,
      "Michel": 8034,
      "dd": 8035,
      "dait": 8036,
      "gt": 8037,
      "giques": 8038,
      "garde": 8039,
      "niens": 8040,
      "sky": 8041,
      "vange": 8042,
      "Ġsan": 8043,
      "oub": 8044,
      "Ġturb": 8045,
      "meurs": 8046,
      "ĠLuber": 8047,
      "Ġnain": 8048,
      "tapes": 8049,
      "Ġbis": 8050,
      "Ġbra": 8051,
      "ĠSab": 8052,
      "olphe": 8053,
      "ĠPict": 8054,
      "lix": 8055,
      "ĠTrac": 8056,
      "ĠFame": 8057,
      "Ġrent": 8058,
      "Ġconstante": 8059,
      "adj": 8060,
      "ingue": 8061,
      "Ġmaterne": 8062,
      "Ġcreuse": 8063,
      "assine": 8064,
      "ologne": 8065,
      "Ġutilisation": 8066,
      "rentis": 8067,
      "illac": 8068,
      "Ġlocalite": 8069,
      "Ġrestaure": 8070,
      "ophones": 8071,
      "Ġculturels": 8072,
      "Ġcombine": 8073,
      "Ġatteignent": 8074,
      "sidents": 8075,
      "Ġdocteur": 8076,
      "Ġsimples": 8077,
      "Ġvolcanique": 8078,
      "Ġpositif": 8079,
      "Ġpuissante": 8080,
      "norme": 8081,
      "Ġglobalement": 8082,
      "olithique": 8083,
      "erbeek": 8084,
      "ĠSchaerbeek": 8085,
      "Ġgloire": 8086,
      "donne": 8087,
      "file": 8088,
      "lt": 8089,
      "lma": 8090,
      "pine": 8091,
      "trois": 8092,
      "wood": 8093,
      "ÅĴ": 8094,
      "Ġcub": 8095,
      "teckendorf": 8096,
      "Ġlai": 8097,
      "Ġfolk": 8098,
      "Ġtunis": 8099,
      "Ġreve": 8100,
      "ĠLy": 8101,
      "ĠSong": 8102,
      "rante": 8103,
      "agner": 8104,
      "ĠFil": 8105,
      "imag": 8106,
      "ĠVol": 8107,
      "cutif": 8108,
      "Ġimpact": 8109,
      "uvie": 8110,
      "Ġinclut": 8111,
      "ĠArbonne": 8112,
      "Ġ1926": 8113,
      "Ġbasque": 8114,
      "cifiques": 8115,
      "ĠLuc": 8116,
      "Ġinitial": 8117,
      "Ġpeintures": 8118,
      "Ġparlementaire": 8119,
      "Ġdisponible": 8120,
      "Ġbateaux": 8121,
      "ĠHugo": 8122,
      "Ġsouvenir": 8123,
      "Ġtitulaire": 8124,
      "ĠSisimiut": 8125,
      "Ainsi": 8126,
      "Os": 8127,
      "Sous": 8128,
      "gies": 8129,
      "hu": 8130,
      "pous": 8131,
      "xford": 8132,
      "Ġpaye": 8133,
      "erts": 8134,
      "celle": 8135,
      "ĠLor": 8136,
      "ĠLine": 8137,
      "rict": 8138,
      "Ġinforme": 8139,
      "ĠDum": 8140,
      "Ġantiques": 8141,
      "ĠGren": 8142,
      "ĠGarde": 8143,
      "Ġpeur": 8144,
      "ular": 8145,
      "Ġnef": 8146,
      "amen": 8147,
      "Ġ1800": 8148,
      "cipitations": 8149,
      "Ġ51": 8150,
      "dentes": 8151,
      "Ġreprennent": 8152,
      "oncent": 8153,
      "Ġrelais": 8154,
      "Ġparcour": 8155,
      "Ġliaison": 8156,
      "approche": 8157,
      "Ġsauvage": 8158,
      "Ġdixie": 8159,
      "Ġofficiels": 8160,
      "Ġpromouvoir": 8161,
      "ptures": 8162,
      "Ġendroit": 8163,
      "Ġindustriels": 8164,
      "moignent": 8165,
      "Ġeffectuer": 8166,
      "Ġcantons": 8167,
      "Ġpuissances": 8168,
      "ĠSilvia": 8169,
      "Ġcavaliers": 8170,
      "Ġrivalite": 8171,
      "boys": 8172,
      "Ġferroviaire": 8173,
      "soudre": 8174,
      "ĠLuberon": 8175,
      "El": 8176,
      "piter": 8177,
      "uler": 8178,
      "Ġtome": 8179,
      "auts": 8180,
      "riau": 8181,
      "Ġconces": 8182,
      "Ġsurnom": 8183,
      "ĠDo": 8184,
      "ĠIXe": 8185,
      "ulse": 8186,
      "ĠJim": 8187,
      "istance": 8188,
      "Ġtrent": 8189,
      "Ġarm": 8190,
      "Ġ54": 8191,
      "Ġatmosphe": 8192,
      "ĠSeine": 8193,
      "ĠCarre": 8194,
      "Ġrefle": 8195,
      "Ġ1922": 8196,
      "Ġsupprime": 8197,
      "ĠCanadi": 8198,
      "ĠMidi": 8199,
      "achat": 8200,
      "augmentation": 8201,
      "Ġjugement": 8202,
      "Ġruine": 8203,
      "Ġgarn": 8204,
      "ĠBohe": 8205,
      "ĠPalais": 8206,
      "Ġvolumes": 8207,
      "Ġtalent": 8208,
      "ĠErnest": 8209,
      "Ġtornades": 8210,
      "Ġjuive": 8211,
      "Ġfinancier": 8212,
      "crivains": 8213,
      "Ġincarne": 8214,
      "Ġsamedi": 8215,
      "ĠRadio": 8216,
      "SP": 8217,
      "bats": 8218,
      "dagog": 8219,
      "fet": 8220,
      "mille": 8221,
      "trent": 8222,
      "encer": 8223,
      "Ġpage": 8224,
      "Ġcense": 8225,
      "Ġlaissent": 8226,
      "urance": 8227,
      "itue": 8228,
      "Ġfoyers": 8229,
      "usant": 8230,
      "ĠCamb": 8231,
      "Ġga": 8232,
      "ĠByz": 8233,
      "ĠchÅĵur": 8234,
      "ĠDarc": 8235,
      "uls": 8236,
      "ĠChic": 8237,
      "ducteur": 8238,
      "impression": 8239,
      "Ġart": 8240,
      "cool": 8241,
      "ĠKombat": 8242,
      "Ġnoter": 8243,
      "Ġtournant": 8244,
      "Ġ79": 8245,
      "grer": 8246,
      "merge": 8247,
      "Ġfigur": 8248,
      "Ġvaches": 8249,
      "Ġblancs": 8250,
      "Ġ1901": 8251,
      "Ġ1906": 8252,
      "Ġinternationales": 8253,
      "Ġlancement": 8254,
      "effic": 8255,
      "Ġmoulin": 8256,
      "Ġpratiquement": 8257,
      "Ġstric": 8258,
      "Ġruines": 8259,
      "Ġcolline": 8260,
      "Ġcontemporaine": 8261,
      "Ġterminus": 8262,
      "Ġfaucon": 8263,
      "ĠJupiter": 8264,
      "Ġrisques": 8265,
      "Ġerreur": 8266,
      "ĠBoston": 8267,
      "ussito": 8268,
      "ĠMusic": 8269,
      "Ġtornade": 8270,
      "ĠBritanniques": 8271,
      "Ġarchitectural": 8272,
      "Ġassimile": 8273,
      "Ġsanctu": 8274,
      "Eminem": 8275,
      "plus": 8276,
      "rint": 8277,
      "ĪĴ": 8278,
      "enon": 8279,
      "enberg": 8280,
      "anat": 8281,
      "Ġmut": 8282,
      "orig": 8283,
      "rateurs": 8284,
      "mette": 8285,
      "Ġseize": 8286,
      "ĠPou": 8287,
      "cice": 8288,
      "Ġindis": 8289,
      "ĠDVD": 8290,
      "ĠTime": 8291,
      "ĠGui": 8292,
      "ockey": 8293,
      "Ġexposition": 8294,
      "objets": 8295,
      "pope": 8296,
      "impulsion": 8297,
      "ritz": 8298,
      "ĠWill": 8299,
      "ident": 8300,
      "Ġpostes": 8301,
      "Ġjume": 8302,
      "Ġadulte": 8303,
      "Ġproduite": 8304,
      "Ġmonts": 8305,
      "tropole": 8306,
      "tables": 8307,
      "Ġ1933": 8308,
      "ĠCarth": 8309,
      "Ġ1866": 8310,
      "Ġchampionnats": 8311,
      "Ġcommerciales": 8312,
      "Ġtraditionnelles": 8313,
      "Ġtraditionnellement": 8314,
      "Ġterminer": 8315,
      "incendie": 8316,
      "Ġmaltaise": 8317,
      "Ġdemander": 8318,
      "Ġchiffres": 8319,
      "Ġfroide": 8320,
      "Ġpoussie": 8321,
      "ĠAmerica": 8322,
      "Thierry": 8323,
      "archipel": 8324,
      "Ġtunnel": 8325,
      "ctalope": 8326,
      "Ġtransfert": 8327,
      ".[": 8328,
      "Har": 8329,
      "Ir": 8330,
      "hume": 8331,
      "nins": 8332,
      "oivent": 8333,
      "sante": 8334,
      "tz": 8335,
      "erne": 8336,
      "artiste": 8337,
      "Ġmagn": 8338,
      "orgie": 8339,
      "Ġfiction": 8340,
      "Ġquad": 8341,
      "chan": 8342,
      "ĠPin": 8343,
      "Ġgren": 8344,
      "ator": 8345,
      "unir": 8346,
      "Ġinond": 8347,
      "ĠRand": 8348,
      "Ġrayon": 8349,
      "importe": 8350,
      "Ġmarquant": 8351,
      "ĠKn": 8352,
      "Ġchemins": 8353,
      "Ġrapports": 8354,
      "aurait": 8355,
      "Ġrestre": 8356,
      "Ind": 8357,
      "Ġcroit": 8358,
      "Ġ1925": 8359,
      "view": 8360,
      "Alors": 8361,
      "pendante": 8362,
      "Ġ1898": 8363,
      "alisant": 8364,
      "Ġcylin": 8365,
      "Ġsusp": 8366,
      "Ġitaliens": 8367,
      "Ġvoisins": 8368,
      "Ġmusicale": 8369,
      "izie": 8370,
      "Ġquotidienne": 8371,
      "Ġparisien": 8372,
      "rigueux": 8373,
      "Ġgermanique": 8374,
      "Ġfemelle": 8375,
      "ĠSimon": 8376,
      "Ġrejete": 8377,
      "ĠNyctalope": 8378,
      "Ġtrentaine": 8379,
      "IV": 8380,
      "Per": 8381,
      "cois": 8382,
      "lites": 8383,
      "mai": 8384,
      "enque": 8385,
      "relle": 8386,
      "Ġpes": 8387,
      "Ġpone": 8388,
      "Ġpistes": 8389,
      "Ġaider": 8390,
      "Ġcur": 8391,
      "inse": 8392,
      "Ġfoot": 8393,
      "ĠLorient": 8394,
      "Ġvigne": 8395,
      "ĠCli": 8396,
      "sign": 8397,
      "Ġbuste": 8398,
      "cialite": 8399,
      "treuse": 8400,
      "ĠRap": 8401,
      "ĠRoss": 8402,
      "aco": 8403,
      "acade": 8404,
      "ĠIr": 8405,
      "utenant": 8406,
      "oble": 8407,
      "Ġaver": 8408,
      "ĠMaroc": 8409,
      "Ġproposer": 8410,
      "assemble": 8411,
      "Ġremparts": 8412,
      "Ġcanons": 8413,
      "Ġtensions": 8414,
      "haus": 8415,
      "Ġ1923": 8416,
      "sification": 8417,
      "Ġinternationaux": 8418,
      "ĠLorsqu": 8419,
      "ĠVerne": 8420,
      "Authie": 8421,
      "Ġballes": 8422,
      "Ġgravures": 8423,
      "ratures": 8424,
      "Ġcavalerie": 8425,
      "Ġvoisine": 8426,
      "Ġmanifestation": 8427,
      "ĠVIIe": 8428,
      "Ġmanuscrits": 8429,
      "Ġglacier": 8430,
      "ternite": 8431,
      "ĠToutes": 8432,
      "Ġtombes": 8433,
      "Ġchancelier": 8434,
      "Ġesprits": 8435,
      "Ġbilan": 8436,
      "Ġlourde": 8437,
      "Ġvraisemblablement": 8438,
      "mmanuel": 8439,
      "Ġravitaille": 8440,
      "ĠTractatus": 8441,
      "Fin": 8442,
      "IC": 8443,
      "axe": 8444,
      "hon": 8445,
      "mens": 8446,
      "penses": 8447,
      "win": 8448,
      "enc": 8449,
      "onard": 8450,
      "Ġcasse": 8451,
      "qualif": 8452,
      "nelle": 8453,
      "Ġenc": 8454,
      "rosion": 8455,
      "Ġbie": 8456,
      "ĠSau": 8457,
      "ĠStu": 8458,
      "ĠBlois": 8459,
      "Ġindire": 8460,
      "ĠDa": 8461,
      "ĠEspagne": 8462,
      "ĠTemp": 8463,
      "ĠFir": 8464,
      "ĠNations": 8465,
      "Ġraids": 8466,
      "Ġ43": 8467,
      "Ġescal": 8468,
      "Ġassemble": 8469,
      "ĠMarcel": 8470,
      "finit": 8471,
      "Ġadmi": 8472,
      "Ġbeaux": 8473,
      "Ġconfond": 8474,
      "Ġassoci": 8475,
      "ĠAujourd": 8476,
      "Ġcatas": 8477,
      "ĠUnited": 8478,
      "Ġcontraste": 8479,
      "application": 8480,
      "Ġ110": 8481,
      "Ġlivret": 8482,
      "Ġjouant": 8483,
      "Ġbonapar": 8484,
      "Ġlogement": 8485,
      "Ġsentiments": 8486,
      "ĠJusqu": 8487,
      "Ġeffectifs": 8488,
      "othique": 8489,
      "Ġracines": 8490,
      "ĠMcC": 8491,
      "exemplaires": 8492,
      "Ġimagine": 8493,
      "ougosla": 8494,
      "Ġblocs": 8495,
      "Ġplaisir": 8496,
      "ĠRaymond": 8497,
      "Ġpropagande": 8498,
      "Ġpanneaux": 8499,
      "ninsule": 8500,
      "Ġcatastro": 8501,
      "98": 8502,
      "conc": 8503,
      "kins": 8504,
      "nique": 8505,
      "well": 8506,
      "Ġpiano": 8507,
      "Ġsch": 8508,
      "Ġcrist": 8509,
      "aristocra": 8510,
      "Ġfoi": 8511,
      "Ġfix": 8512,
      "estation": 8513,
      "chau": 8514,
      "Ġbrise": 8515,
      "ĠMade": 8516,
      "cienne": 8517,
      "ĠRu": 8518,
      "ĠGras": 8519,
      "Ġplate": 8520,
      "ussions": 8521,
      "Ġaste": 8522,
      "Ġcourants": 8523,
      "gionales": 8524,
      "ibilite": 8525,
      "Ġexplicite": 8526,
      "Ġconfronte": 8527,
      "Ġassassine": 8528,
      "Ġappu": 8529,
      "Ġvertic": 8530,
      "Ġvolcans": 8531,
      "Ġhabitations": 8532,
      "ilippe": 8533,
      "Ġ1935": 8534,
      "Ġseuil": 8535,
      "Ġ1913": 8536,
      "Ġofficielles": 8537,
      "ĠBrun": 8538,
      "carte": 8539,
      "ĠTourn": 8540,
      "Åĵufs": 8541,
      "Ġimmeubles": 8542,
      "ajoutent": 8543,
      "Ġgaleries": 8544,
      "bots": 8545,
      "ĠVirgin": 8546,
      "ĠPatrick": 8547,
      "ĠRouge": 8548,
      "ĠHolmes": 8549,
      "ĠFontaine": 8550,
      "Ġuniverselle": 8551,
      "Ġcarburant": 8552,
      "cennie": 8553,
      "ĠTunisie": 8554,
      "itloof": 8555,
      "ĠChicago": 8556,
      "Ain": 8557,
      "Olymp": 8558,
      "bot": 8559,
      "cts": 8560,
      "four": 8561,
      "ston": 8562,
      "sax": 8563,
      "yl": 8564,
      "Ġloue": 8565,
      "Ġpale": 8566,
      "Ġsla": 8567,
      "tica": 8568,
      "erme": 8569,
      "artis": 8570,
      "neuf": 8571,
      "Ġmourir": 8572,
      "alli": 8573,
      "Ġnoc": 8574,
      "Ġbour": 8575,
      "Ġbrou": 8576,
      "Ġseigne": 8577,
      "ĠSok": 8578,
      "ĠPur": 8579,
      "ĠAfin": 8580,
      "ato": 8581,
      "Ġprose": 8582,
      "ĠTa": 8583,
      "ĠGold": 8584,
      "Ġrural": 8585,
      "ĠNic": 8586,
      "inscrit": 8587,
      "lore": 8588,
      "duca": 8589,
      "Ġentrer": 8590,
      "cope": 8591,
      "Ġoce": 8592,
      "ussite": 8593,
      "tration": 8594,
      "Ġtirs": 8595,
      "ÌĪ,": 8596,
      "Ġtouristes": 8597,
      "Ġadhe": 8598,
      "Ġ85": 8599,
      "tituer": 8600,
      "crivent": 8601,
      "Ġdommages": 8602,
      "Ġincen": 8603,
      "Ġincluant": 8604,
      "value": 8605,
      "Ġautrefois": 8606,
      "Ġhumaines": 8607,
      "affir": 8608,
      "Ġ1862": 8609,
      "Ġconstituer": 8610,
      "Ġvoulu": 8611,
      "Ġprogression": 8612,
      "Ġloges": 8613,
      "ĠGalthie": 8614,
      "ĠFerr": 8615,
      "Ġdatent": 8616,
      "uafo": 8617,
      "Ġmusical": 8618,
      "Ġprotestants": 8619,
      "Ġdiminue": 8620,
      "Ġcabinet": 8621,
      "Ġfemelles": 8622,
      "ĠStreet": 8623,
      "ĠDarcy": 8624,
      "Indrois": 8625,
      "Ope": 8626,
      "PS": 8627,
      "bris": 8628,
      "llig": 8629,
      "plique": 8630,
      "vation": 8631,
      "Ġdign": 8632,
      "anterie": 8633,
      "Ġmam": 8634,
      "ilation": 8635,
      "ĠLis": 8636,
      "Ġ118": 8637,
      "sire": 8638,
      "ĠBonne": 8639,
      "Ġproduisent": 8640,
      "ĠDar": 8641,
      "ĠDictionnaire": 8642,
      "ĠGolf": 8643,
      "icale": 8644,
      "Ġrendant": 8645,
      "onnais": 8646,
      "aval": 8647,
      "Ġdioce": 8648,
      "Ġrecueil": 8649,
      "verg": 8650,
      "Ġcoureur": 8651,
      "Ġcourbure": 8652,
      "maj": 8653,
      "Ġ900": 8654,
      "stein": 8655,
      "Ġports": 8656,
      "dification": 8657,
      "ĠComne": 8658,
      "Ġbarre": 8659,
      "Ġcroisie": 8660,
      "Ġsuscepti": 8661,
      "fenseur": 8662,
      "habitat": 8663,
      "Ġindustrielle": 8664,
      "Ġcertainement": 8665,
      "Ġpositions": 8666,
      "Ġuniversitaires": 8667,
      "Ġrefusent": 8668,
      "Ġennemi": 8669,
      "ĠPatro": 8670,
      "Ġfamiliale": 8671,
      "Ġgallo": 8672,
      "Ġfacile": 8673,
      "Ġmosque": 8674,
      "clenche": 8675,
      "Ġmusulmans": 8676,
      "ĠPrince": 8677,
      "Ġnavigation": 8678,
      "Ġbolchevi": 8679,
      "AD": 8680,
      "Ho": 8681,
      "Marc": 8682,
      "bi": 8683,
      "kk": 8684,
      "mmer": 8685,
      "nig": 8686,
      "Ġdense": 8687,
      "encie": 8688,
      "Ġprie": 8689,
      "ĠLord": 8690,
      "tais": 8691,
      "ĠSol": 8692,
      "ĠSoph": 8693,
      "ĠAff": 8694,
      "Ġchien": 8695,
      "Ġsurfaces": 8696,
      "ĠTitan": 8697,
      "ĠFar": 8698,
      "Ġavoc": 8699,
      "Ġdisposi": 8700,
      "Ġplage": 8701,
      "Ġplaques": 8702,
      "Ġpersu": 8703,
      "Ġ53": 8704,
      "Ġinsuff": 8705,
      "allent": 8706,
      "Ġprimi": 8707,
      "Ġcrimine": 8708,
      "Ġcomplexes": 8709,
      "Ġagents": 8710,
      "Ġamene": 8711,
      "rieurement": 8712,
      "Ġcharges": 8713,
      "Ġchercher": 8714,
      "ĠMonfort": 8715,
      "quipier": 8716,
      "humanite": 8717,
      "Ġfamilial": 8718,
      "ĠBourgogne": 8719,
      "Ġinconnue": 8720,
      "Ġcroyances": 8721,
      "appuie": 8722,
      "Ê»ou": 8723,
      "Ġhameau": 8724,
      "Ġsupporters": 8725,
      "ĠLuxemb": 8726,
      "Ġgarnison": 8727,
      "Ġfootballe": 8728,
      "Aux": 8729,
      "faut": 8730,
      "oxe": 8731,
      "sulte": 8732,
      "wick": 8733,
      "zy": 8734,
      "enb": 8735,
      "enaire": 8736,
      "onix": 8737,
      "Ġpend": 8738,
      "tign": 8739,
      "Ġentite": 8740,
      "roir": 8741,
      "ĠLin": 8742,
      "Ġnauf": 8743,
      "chillas": 8744,
      "ĠConc": 8745,
      "Ġesthe": 8746,
      "ĠPol": 8747,
      "Ġgame": 8748,
      "Ġproviennent": 8749,
      "Ġprocession": 8750,
      "ĠRoc": 8751,
      "ĠRennes": 8752,
      "agas": 8753,
      "agissait": 8754,
      "Ġextension": 8755,
      "uisseau": 8756,
      "amer": 8757,
      "Ġconsole": 8758,
      "ogue": 8759,
      "Ġmarins": 8760,
      "umule": 8761,
      "ĠMaria": 8762,
      "ralise": 8763,
      "Ġabbe": 8764,
      "Ġconstruites": 8765,
      "ventures": 8766,
      "Ġcapital": 8767,
      "Ġconclusion": 8768,
      "Ġpublications": 8769,
      "Ġfera": 8770,
      "voquent": 8771,
      "Ġreliant": 8772,
      "volutionnaires": 8773,
      "Ġdisposer": 8774,
      "Ġfrais": 8775,
      "Ġamoureux": 8776,
      "Albert": 8777,
      "organiser": 8778,
      "Ġfourr": 8779,
      "Ġ1885": 8780,
      "quisition": 8781,
      "Ġformat": 8782,
      "Ġ1840": 8783,
      "animaux": 8784,
      "Ġsculptures": 8785,
      "Ġsculpture": 8786,
      "tainment": 8787,
      "Ġconvaincre": 8788,
      "ĠFlorence": 8789,
      "Ġfruits": 8790,
      "Certains": 8791,
      "otype": 8792,
      "Ġpavillon": 8793,
      "Ġporcelaine": 8794,
      "Ġorthodoxe": 8795,
      "ĠChamonix": 8796,
      "Ġcirconstances": 8797,
      "cra": 8798,
      "dan": 8799,
      "fou": 8800,
      "fra": 8801,
      "sub": 8802,
      "Ġdol": 8803,
      "Ġaxe": 8804,
      "Ġcens": 8805,
      "quait": 8806,
      "inaires": 8807,
      "aro": 8808,
      "Ġdestru": 8809,
      "Ġna": 8810,
      "ĠCamp": 8811,
      "ĠCastel": 8812,
      "ĠAussi": 8813,
      "atmosphe": 8814,
      "Ġanten": 8815,
      "abri": 8816,
      "appelle": 8817,
      "amine": 8818,
      "imposer": 8819,
      "tences": 8820,
      "Ġ59": 8821,
      "mid": 8822,
      "Ġhebdomad": 8823,
      "Ġconfront": 8824,
      "Ġmusiques": 8825,
      "grade": 8826,
      "ĠLouison": 8827,
      "Ġretrans": 8828,
      "tionnels": 8829,
      "Ġsauver": 8830,
      "orial": 8831,
      "Ġmorph": 8832,
      "dical": 8833,
      "dication": 8834,
      "romaine": 8835,
      "Ġgenres": 8836,
      "Ġmodifications": 8837,
      "ĠÃĨthel": 8838,
      "Ġarriver": 8839,
      "ĠSarah": 8840,
      "ĠFalash": 8841,
      "ĠInternational": 8842,
      "Ġstatistiques": 8843,
      "Ġdatation": 8844,
      "ĠTruyes": 8845,
      "Ġdiminution": 8846,
      "ĠCarthage": 8847,
      "FF": 8848,
      "vous": 8849,
      "Ġcoc": 8850,
      "ÌĢ.": 8851,
      "invasion": 8852,
      "arl": 8853,
      "Ġfins": 8854,
      "Ġfoyer": 8855,
      "Ġregre": 8856,
      "Ġrelier": 8857,
      "tache": 8858,
      "tamment": 8859,
      "Ġbiento": 8860,
      "ĠSatur": 8861,
      "ĠPS": 8862,
      "ĠMr": 8863,
      "Ġchat": 8864,
      "ĠEmble": 8865,
      "dienne": 8866,
      "iger": 8867,
      "Ġexac": 8868,
      "Ġexpositions": 8869,
      "andball": 8870,
      "avaient": 8871,
      "dule": 8872,
      "Ġactif": 8873,
      "other": 8874,
      "Ġ56": 8875,
      "Ġchambres": 8876,
      "Ġ82": 8877,
      "Ġdivine": 8878,
      "ĠAudi": 8879,
      "Ġfacteur": 8880,
      "Ġemporte": 8881,
      "anemark": 8882,
      "Ġrestant": 8883,
      "ĠInde": 8884,
      "Ġmess": 8885,
      "Ġagran": 8886,
      "Inde": 8887,
      "Insee": 8888,
      "Ġ1907": 8889,
      "Ġ1908": 8890,
      "Ġpilo": 8891,
      "Ġsignification": 8892,
      "Ġcolonie": 8893,
      "ellois": 8894,
      "ĠAnglo": 8895,
      "ascension": 8896,
      "Ġatelier": 8897,
      "Ġuniversel": 8898,
      "Ġhonor": 8899,
      "atherine": 8900,
      "Ġsoixante": 8901,
      "Ġtaurus": 8902,
      "ĠCongre": 8903,
      "ĠChampionnat": 8904,
      "ĠTokyo": 8905,
      "OM": 8906,
      "OCLC": 8907,
      "Victor": 8908,
      "fant": 8909,
      "tuelle": 8910,
      "vey": 8911,
      "Ġvais": 8912,
      "set": 8913,
      "rimente": 8914,
      "ĠCy": 8915,
      "Ġbibli": 8916,
      "mper": 8917,
      "Ġgagn": 8918,
      "Ġgeste": 8919,
      "ĠMou": 8920,
      "ĠMis": 8921,
      "Ġplomb": 8922,
      "Ġprocla": 8923,
      "aider": 8924,
      "ĠTop": 8925,
      "Ġpassionne": 8926,
      "ĠHire": 8927,
      "tresse": 8928,
      "Ġdialogue": 8929,
      "ĠMarge": 8930,
      "olet": 8931,
      "Ġ1789": 8932,
      "Ġrival": 8933,
      "Ġpublier": 8934,
      "Ġsuivis": 8935,
      "ĠAlfred": 8936,
      "grad": 8937,
      "Ġopus": 8938,
      "Ġcroire": 8939,
      "Ġstyles": 8940,
      "Ġlieutenant": 8941,
      "Ġdistinguer": 8942,
      "utilise": 8943,
      "Ġviolents": 8944,
      "ĠBuild": 8945,
      "Ġaugment": 8946,
      "play": 8947,
      "Ġhauts": 8948,
      "Ġmasses": 8949,
      "ĠAtlantique": 8950,
      "Ġabsol": 8951,
      "Ġespagnole": 8952,
      "Ġcavalier": 8953,
      "Ġmachines": 8954,
      "appellation": 8955,
      "dinand": 8956,
      "ĠFerrari": 8957,
      "uafoÊ»ou": 8958,
      "major": 8959,
      "EC": 8960,
      "ER": 8961,
      "Ġaim": 8962,
      "Ġamateur": 8963,
      "quations": 8964,
      "ridion": 8965,
      "laient": 8966,
      "ĠSain": 8967,
      "lienne": 8968,
      "ĠBure": 8969,
      "ĠBack": 8970,
      "Ġproclame": 8971,
      "ĠDor": 8972,
      "ĠGue": 8973,
      "Ġruisseau": 8974,
      "impe": 8975,
      "Ġrame": 8976,
      "Ġcomprom": 8977,
      "Ġfortifie": 8978,
      "Ġmarquer": 8979,
      "Ġcart": 8980,
      "rison": 8981,
      "Ġtien": 8982,
      "titudes": 8983,
      "merie": 8984,
      "Ġproposent": 8985,
      "marche": 8986,
      "arthe": 8987,
      "Ġ1931": 8988,
      "Art": 8989,
      "Ġessentiel": 8990,
      "Ġtechnologie": 8991,
      "erret": 8992,
      "sistent": 8993,
      "Ġchoisir": 8994,
      "ressionn": 8995,
      "Ġbalne": 8996,
      "Ġphilosophe": 8997,
      "Ġgravure": 8998,
      "Ġcanadien": 8999,
      "Ġadministratif": 9000,
      "Ġabsolu": 9001,
      "Ġcuisine": 9002,
      "aventure": 9003,
      "Ġweek": 9004,
      "Ġperspective": 9005,
      "ĠPortugal": 9006,
      "ĠPictures": 9007,
      "IB": 9008,
      "dois": 9009,
      "mare": 9010,
      "tente": 9011,
      "vas": 9012,
      "Ġlistes": 9013,
      "Ġave": 9014,
      "tig": 9015,
      "inness": 9016,
      "uset": 9017,
      "ĠCop": 9018,
      "ĠCinq": 9019,
      "lat": 9020,
      "ĠMore": 9021,
      "liens": 9022,
      "Ġhong": 9023,
      "illeur": 9024,
      "actifs": 9025,
      "apin": 9026,
      "ĠNet": 9027,
      "avre": 9028,
      "Ġcompens": 9029,
      "Ġcomprennent": 9030,
      "trum": 9031,
      "Ġrecords": 9032,
      "Ġcheveux": 9033,
      "serves": 9034,
      "fecture": 9035,
      "Ġcolons": 9036,
      "Ġattent": 9037,
      "jeu": 9038,
      "Ġ72": 9039,
      "Ġnotables": 9040,
      "coupe": 9041,
      "ĠBeat": 9042,
      "Ġ1927": 9043,
      "Ġbarrage": 9044,
      "actuel": 9045,
      "ĠSpir": 9046,
      "Ġmunicipales": 9047,
      "Ġvoulait": 9048,
      "matiquement": 9049,
      "Ġoriginaires": 9050,
      "Ġadministration": 9051,
      "ĠNouveau": 9052,
      "ount": 9053,
      "Ġvoisin": 9054,
      "placements": 9055,
      "ficit": 9056,
      "ĠLoches": 9057,
      "gislatives": 9058,
      "passer": 9059,
      "Ġoccasionne": 9060,
      "Av": 9061,
      "CF": 9062,
      "OC": 9063,
      "aus": 9064,
      "cli": 9065,
      "hr": 9066,
      "king": 9067,
      "nale": 9068,
      "uk": 9069,
      "Ġpayer": 9070,
      "leine": 9071,
      "Ġleve": 9072,
      "Ġethn": 9073,
      "iement": 9074,
      "ilique": 9075,
      "Ġfasc": 9076,
      "oman": 9077,
      "Ġquelle": 9078,
      "ĠAri": 9079,
      "Ġinitie": 9080,
      "Ġprotagon": 9081,
      "ĠRusse": 9082,
      "ĠFM": 9083,
      "hel": 9084,
      "Ġsupern": 9085,
      "amin": 9086,
      "Ġtrajet": 9087,
      "adop": 9088,
      "Ġplas": 9089,
      "Ġimporte": 9090,
      "ĠUr": 9091,
      "Ġcourage": 9092,
      "Ġcourbe": 9093,
      "ralisation": 9094,
      "Ġpermettait": 9095,
      "Ġconnait": 9096,
      "claire": 9097,
      "Ġlocalise": 9098,
      "Ġrelatives": 9099,
      "tionnelles": 9100,
      "Ġamour": 9101,
      "Ġbattre": 9102,
      "Ġtriple": 9103,
      "Ġbrill": 9104,
      "consulte": 9105,
      "Ġlimiter": 9106,
      "ĠWilliams": 9107,
      "Ġmarchand": 9108,
      "ĠJackson": 9109,
      "Ġorganisations": 9110,
      "Ġcostume": 9111,
      "Ġengendre": 9112,
      "Ġmachine": 9113,
      "Ġminimum": 9114,
      "Ġarchitectur": 9115,
      "Ġcycliste": 9116,
      "Ġcompositeur": 9117,
      "Philippe": 9118,
      "Ġgymnastique": 9119,
      "rentissage": 9120,
      "efficacite": 9121,
      "ĠVerneuil": 9122,
      "ĠPatrocle": 9123,
      "Ġtiennent": 9124,
      "dres": 9125,
      "hard": 9126,
      "iries": 9127,
      "nus": 9128,
      "yle": 9129,
      "Ġsensi": 9130,
      "entle": 9131,
      "Ġleader": 9132,
      "Ġdestro": 9133,
      "alition": 9134,
      "ĠCrash": 9135,
      "Ġbacte": 9136,
      "Ġbillets": 9137,
      "ĠBl": 9138,
      "ĠBent": 9139,
      "ĠDanemark": 9140,
      "agir": 9141,
      "utent": 9142,
      "ĠGla": 9143,
      "Ġpassion": 9144,
      "imme": 9145,
      "Ġtraje": 9146,
      "Ġall": 9147,
      "Ġfortifications": 9148,
      "ĠKo": 9149,
      "Ġfiliale": 9150,
      "Ġheur": 9151,
      "olutions": 9152,
      "Ġconfes": 9153,
      "rys": 9154,
      "veloppent": 9155,
      "ĠYe": 9156,
      "Ġcasino": 9157,
      "Ġcrime": 9158,
      "Ġdisputer": 9159,
      "Ġhumides": 9160,
      "ĠMiche": 9161,
      "Ġtraverser": 9162,
      "ĠSports": 9163,
      "Ġproprement": 9164,
      "Ġsymboles": 9165,
      "office": 9166,
      "ĠDiam": 9167,
      "ĠChemille": 9168,
      "ĠJaponais": 9169,
      "ĠEdward": 9170,
      "ĠEdgar": 9171,
      "colte": 9172,
      "Ġcanadiennes": 9173,
      "Ġalimente": 9174,
      "ĠForces": 9175,
      "Ġchantiers": 9176,
      "Ġadministratives": 9177,
      "Ġbuteur": 9178,
      "Ġarbitres": 9179,
      "funt": 9180,
      "ĠChabrol": 9181,
      "ĠSimpson": 9182,
      "ĠBuilding": 9183,
      "04": 9184,
      "Son": 9185,
      "TV": 9186,
      "cue": 9187,
      "gales": 9188,
      "hib": 9189,
      "sopota": 9190,
      "Ġaussito": 9191,
      "Ġcure": 9192,
      "ero": 9193,
      "ortation": 9194,
      "Ġtap": 9195,
      "Ġparole": 9196,
      "rim": 9197,
      "ĠCub": 9198,
      "ĠPale": 9199,
      "ĠMonde": 9200,
      "Ġjazz": 9201,
      "ĠRA": 9202,
      "actu": 9203,
      "ĠGon": 9204,
      "ĠGros": 9205,
      "appre": 9206,
      "ried": 9207,
      "ampe": 9208,
      "istant": 9209,
      "cuper": 9210,
      "ĠMark": 9211,
      "Ġjustifie": 9212,
      "ĠAns": 9213,
      "Ġ63": 9214,
      "Ġmenac": 9215,
      "Ġsubi": 9216,
      "Ġcommerc": 9217,
      "illir": 9218,
      "Ġ1863": 9219,
      "Ġblanches": 9220,
      "Ġcontroverse": 9221,
      "ĠClark": 9222,
      "Ġmagist": 9223,
      "Ġ1888": 9224,
      "Ġsortent": 9225,
      "Ġitine": 9226,
      "ĠColomb": 9227,
      "Ordre": 9228,
      "assinat": 9229,
      "alogues": 9230,
      "Ġpatrou": 9231,
      "Ġpeintres": 9232,
      "ĠLove": 9233,
      "Ġthermique": 9234,
      "Ġnarrateur": 9235,
      "Ġprincesse": 9236,
      "horreur": 9237,
      "Anglo": 9238,
      "Ġascension": 9239,
      "ĠPengu": 9240,
      "plicants": 9241,
      "Ġpartagent": 9242,
      "Ġcarolingienne": 9243,
      "Ġintellect": 9244,
      "Ġsatellite": 9245,
      "ĠCommunaute": 9246,
      "ĠFleury": 9247,
      "Ġmuserolle": 9248,
      "Ġabsolue": 9249,
      "96": 9250,
      "Con": 9251,
      "Trois": 9252,
      "hol": 9253,
      "hall": 9254,
      "lf": 9255,
      "lop": 9256,
      "pris": 9257,
      "Ġlonge": 9258,
      "enius": 9259,
      "Ġmob": 9260,
      "Ġmante": 9261,
      "Ġcomble": 9262,
      "ĠMill": 9263,
      "diaires": 9264,
      "ĠRiv": 9265,
      "igle": 9266,
[...]
